00001110100110100000000000000000
10000001101011100001100101110000
10001100001000001000001000001101
10000011010010001000100000011101
00010001110101100000001011110011
10000000010001010000100000011010
00001000111101001001000100001001
00011000001100110000010000101000
00011001000011111001010000110001
00011111010101111000010100110001
10001011010101100010011001010001
10000110111100011010010100000111
10010001011100101000010011111101
00010011010011101001101011001011
00010010011000011000011011010001
00010110001000010000001000010111
10011011110010001000101101010010
10000011111110110001110101101110
00011011000110010010000110000000
10000010011010011000100010010100
10011010100010111000001000010001
00010100001100011010000011110111
10000111011001000000110110101101
00000011111010100000100000101111
10010010011101101010010110111110
10000111011101000010111110100100
00001100010000010000001110100100
10000101000011100000000001111011
00000101011110000000000011101000
10000110111000011000000110100011
00010001010011110000010101010011
10010101110101000000000011100000
00001010001101111000010000110011
00001111001101001000101111110011
10000011110001010000111001111101
10100000100111110001000101111110
10000100100101010000110011100000
00001001001000000000010101101001
10000101101110101000101000110101
00010010110001101000011000010110
10000111110000111000001100010101
00010011110101011010111100010110
00000110100101111000000100100001
10001010100001110000100000011011
00000111001010010001000101011000
00000001001010100001011111000001
00000001001110100001100111111010
00001110110011111000011010000110
00000000100000001000100110111110
10011110001111011001001010011100
10001010010000010001001111101011
10000001001110100000011011001111
00000101010110001000010111010101
00000000101101001000110110100010
00000101101111011000010100010011
10010001001001001000101101010011
10000000110101100000010101001010
10000011101100100000111100101110
00000010100111011000100011001110
10001110010100010000001001100001
10000100000001011000101010100111
00000110101110100000000100100010
10000100000110000001000110111001
10001000110111010000000000110101
00010011101010110000000000000000
10001000110111011000000000110101
10000100000110001001000110111001
00000110101110101000000100100010
10000100000001010000101010100111
10001110010100011000001001100001
00000010100111010000100011001110
10000011101100101000111100101110
10000000110101101000010101001010
10010001001001000000101101010011
00000101101111010000010100010011
00000000101101000000110110100010
00000101010110000000010111010101
10000001001110101000011011001111
10001010010000011001001111101011
10011110001111010001001010011100
00000000100000000000100110111110
00001110110011110000011010000110
00000001001110101001100111111010
00000001001010101001011111000001
00000111001010011001000101011000
10001010100001111000100000011011
00000110100101110000000100100001
00010011110101010010111100010110
10000111110000110000001100010101
00010010110001100000011000010110
10000101101110100000101000110101
00001001001000001000010101101001
10000100100101011000110011100000
10100000100111111001000101111110
10000011110001011000111001111101
00001111001101000000101111110011
00001010001101110000010000110011
10010101110101001000000011100000
00010001010011111000010101010011
10000110111000010000000110100011
00000101011110001000000011101000
10000101000011101000000001111011
00001100010000011000001110100100
10000111011101001010111110100100
10010010011101100010010110111110
00000011111010101000100000101111
10000111011001001000110110101101
00010100001100010010000011110111
10011010100010110000001000010001
10000010011010010000100010010100
00011011000110011010000110000000
10000011111110111001110101101110
10011011110010000000101101010010
00010110001000011000001000010111
00010010011000010000011011010001
00010011010011100001101011001011
10010001011100100000010011111101
10000110111100010010010100000111
10001011010101101010011001010001
00011111010101110000010100110001
00011001000011110001010000110001
00011000001100111000010000101000
00001000111101000001000100001001
10000000010001011000100000011010
00010001110101101000001011110011
10000011010010000000100000011101
10001100001000000000001000001101
10000001101011101001100101110000