00000000010000110000000000000000
00000010000011001111110110111010
11101110001000000000001001011100
00000011011000001111100000100011
00000000111111101111111100111000
00000000100000111111111110110010
00000010000000100000001110000010
11111100111101001111111011100000
11111111010001011111110100010111
11111101110101101111111111101100
00000001000111010000000000110101
00000000000001011111111111011010
11111110010101101111111100011001
00000001110001110000000100011010
11111101101000000000001010101100
11111111111100111111111010001001
11111111101010111111110110100011
00000000001001111111111110000101
11111111100110101111111010001101
00000001100010100000000100011001
11111111110010001111111101101110
00000000010001001111111011111001
11111111111110101111111100110100
00000000011011110000000100100001
11111110011101110000000000100101
00000000010101101111111011010011
11111111111001110000000011111011
11111111010010000000000011000000
11111111111100100000000011100011
11111101110101110000000000001101
00000000011111100000000000011001
11111111001101011111111100101010
11111101111110110000000001011100
11111111111111111111111111111101
00000000000001001111111100100101
00000000111100000000000010110010
11111111110100011111111101011110
11111111110111001111111110111100
00000001000011100000000000100010
11111111100011010000000000101101
11111111110101100000000000011000
00000000110111010000000001010100
00000000101000110000000011110110
00000000000110110000000000111101
00000000000101000000000000100010
00000000010101010000000001011011
11111111101111000000000000111111
00000000011010001111111101101101
00000000100001111111111010010111
00000001101011110000000001001101
11111111111000100000000000001110
00000000110010111111111101011101
00000000000111101111111101110100
00000000011011100000000001011110
00000000101100001111111001010001
11111111010010100000000101011111
11111111101001110000000101101010
11111110100110101111111110110111
11111111011110110000000100101110
00000000110110110000000000010101
11111111110100011111111100010010
11111111110000010000000100010000
11111111110110101111111101001100
11111111011110110000000100101110
11111111010011010000000000000000
11111111011110111111111011010010
11111111110110100000000010110100
11111111110000011111111011110000
11111111110100010000000011101110
00000000110110111111111111101011
11111111011110111111111011010010
11111110100110100000000001001001
11111111101001111111111010010110
11111111010010101111111010100001
00000000101100000000000110101111
00000000011011101111111110100010
00000000000111100000000010001100
00000000110010110000000010100011
11111111111000101111111111110010
00000001101011111111111110110011
00000000100001110000000101101001
00000000011010000000000010010011
11111111101111001111111111000001
00000000010101011111111110100101
00000000000101001111111111011110
00000000000110111111111111000011
00000000101000111111111100001010
00000000110111011111111110101100
11111111110101101111111111101000
11111111100011011111111111010011
00000001000011101111111111011110
11111111110111000000000001000100
11111111110100010000000010100010
00000000111100001111111101001110
00000000000001000000000011011011
11111111111111110000000000000011
11111101111110111111111110100100
11111111001101010000000011010110
00000000011111101111111111100111
11111101110101111111111111110011
11111111111100101111111100011101
11111111010010001111111101000000
11111111111001111111111100000101
00000000010101100000000100101101
11111110011101111111111111011011
00000000011011111111111011011111
11111111111110100000000011001100
00000000010001000000000100000111
11111111110010000000000010010010
00000001100010101111111011100111
11111111100110100000000101110011
00000000001001110000000001111011
11111111101010110000001001011101
11111111111100110000000101110111
11111101101000001111110101010100
00000001110001111111111011100110
11111110010101100000000011100111
00000000000001010000000000100110
00000001000111011111111111001011
11111101110101100000000000010100
11111111010001010000001011101001
11111100111101000000000100100000
00000010000000101111110001111110
00000000100000110000000001001110
00000000111111100000000011001000
00000011011000000000011111011101
11101110001000001111110110100100
00000010000011000000001001000110
00000011001010010000000000000000
11111110101010100000000101111010
00000100011111101111110100011100
11111110011010110000010100100011
11111011011010111111111100010011
11111100111011000000000111000010
00000001101011000000001000000101
11111100110011110000000100101101
11111110110011011111110010101011
00000001000001101111111101010001
00000000111101110000000110001100
11111101100010001111111111101111
00000000000110111111111010011100
11111110010011000000000111011111
11111111000101000000110011101110
00000000110100100000000111011010
00000000011111101111111110001011
00000000110010011111111110000010
00000000111100010000000101001010
11111111101010100000000100110101
11111111101011100000000100100010
00000000110011011111111011110000
00000000111000101111111110101101
00000000011110010000000010011001
11111111111111110000000000011011
11111111010111000000000010011011
00000000110111101111111011001100
11111111011000101111111100001111
00000001001010110000000010101010
11111110101000000000000001110000
00000000100101001111111110000101
11111111110001111111111110110101
11111111010100000000000010101000
11111111000011010000000010001110
00000000000100100000000000101010
00000000001000011111111111111010
11111111110011111111111101011001
00000000110000001111111110111110
00000000010110000000000110011000
11111110010001000000000001011010
11111111101100000000000001100000
00000000010001111111111100111110
00000000000110000000000010101011
11111110101110011111111100000001
11111111011001101111111110010011
11111111001100000000000001111110
00000000011011000000000010110011
00000000001110111111111100011010
00000001100100001111111010010110
00000000011111101111111011010110
11111110100010100000000000011101
11111111110011111111111110000101
11111110111001111111111100110001
11111110110111011111111110100100
00000000111001000000000001011110
00000010000001001111111101010000
00000001000001101111111110101100
00000000001110000000000110000100
00000000011100100000000011011010
00000000010101000000000011101100
00000000101001110000000001000101
11111110110110101111111111010000
11111111111000101111111011101110
00000001000000110000000000111010
11111110000000000000000000000000
00000001000000111111111111000110
11111111111000100000000100010010
11111110110110100000000000110000
00000000101001111111111110111011
00000000010101001111111100010100
00000000011100101111111100100110
00000000001110001111111001111100
00000001000001100000000001010100
00000010000001000000000010110000
00000000111001001111111110100010
11111110110111010000000001011100
11111110111001110000000011001111
11111111110011110000000001111011
11111110100010101111111111100011
00000000011111100000000100101010
00000001100100000000000101101010
00000000001110110000000011100110
00000000011011001111111101001101
11111111001100001111111110000010
11111111011001100000000001101101
11111110101110010000000011111111
00000000000110001111111101010101
00000000010001110000000011000010
11111111101100001111111110100000
11111110010001001111111110100110
00000000010110001111111001101000
00000000110000000000000001000010
11111111110011110000000010100111
00000000001000010000000000000110
00000000000100101111111111010110
11111111000011011111111101110010
11111111010100001111111101011000
11111111110001110000000001001011
00000000100101000000000001111011
11111110101000001111111110010000
00000001001010111111111101010110
11111111011000100000000011110001
00000000110111100000000100110100
11111111010111001111111101100101
11111111111111111111111111100101
00000000011110011111111101100111
00000000111000100000000001010011
00000000110011010000000100010000
11111111101011101111111011011110
11111111101010101111111011001011
00000000111100011111111010110110
00000000110010010000000001111110
00000000011111100000000001110101
00000000110100101111111000100110
11111111000101001111001100010010
11111110010011001111111000100001
00000000000110110000000101100100
11111101100010000000000000010001
00000000111101111111111001110100
00000001000001100000000010101111
11111110110011010000001101010101
11111100110011111111111011010011
00000001101011001111110111111011
11111100111011001111111000111110
11111011011010110000000011101101
11111110011010111111101011011101
00000100011111100000001011100100
11111110101010101111111010000110
00000001111110000000000000000000
00000000110101110000000000110001
11111010111111011111111000110100
00000101001111100000001101111010
00000000101001001111111110110110
11111100111011100000000001000110
11111111100101100000000011010111
00000010000000000000000000100100
11111110100011010000000010001001
00000000010101001111111100110101
11111111010100011111111000010001
00000000100100010000001001000010
11111101010000100000000101000110
00000000010111101111111101000100
00000100111010110000010111010111
00000001001001011111111001100001
00000001000110100000000000110010
11111111011011101111111110100111
00000001010000101111111101001010
00000000101010011111111111011000
11111111000111100000000010100110
00000001100010001111111101010101
11111111010001010000000111011110
00000000011100011111111110001111
11111111011110100000000010010000
00000001000010110000000010011010
11111110111100100000000001000110
00000000010101011111111001001001
00000000111011101111111101010010
11111110101010011111111101001100
11111111110001000000000010100001
11111111000110000000000000000110
00000001011111110000000110000010
00000000000011011111111111010110
00000000001101100000000001111110
00000000011010100000000010100000
00000000010010111111111010011101
11111111110011100000000001101100
00000000000011010000000010110000
00000000011001011111111111111100
00000000001001110000000010101100
11111111110011011111111111111000
00000000100001110000001010000111
00000000011110110000000010111110
11111110110111010000000011100101
11111110111110101111111101000001
00000001001000011111111010000010
00000000110100011111111100001011
11111111101010111111111101111000
11111110111110001111111000111010
00000000101000011111111100101100
00000001110000000000000001000011
11111111110011101111111111100011
11111111111011110000000000110100
11111111110101010000000100100110
11111111010110000000000010011000
00000000010001101111111110001011
11111111110111000000000000101100
11111111011010011111111111000001
00000001011011000000000010111100
11111111100011001111111011000000
11111111100000001111111010110000
11111111011111000000000001010100
11111111001010010000000000110000
00000000100111010000000000000000
11111111001010011111111111010000
11111111011111001111111110101100
11111111100000000000000101010000
11111111100011000000000101000000
00000001011011001111111101000100
11111111011010010000000000111111
11111111110111001111111111010100
00000000010001100000000001110101
11111111010110001111111101101000
11111111110101011111111011011010
11111111111011111111111111001100
11111111110011100000000000011101
00000001110000001111111110111101
00000000101000010000000011010100
11111110111110000000000111000110
11111111101010110000000010001000
00000000110100010000000011110101
00000001001000010000000101111110
11111110111110100000000010111111
11111110110111011111111100011011
00000000011110111111111101000010
00000000100001111111110101111001
11111111110011010000000000001000
00000000001001111111111101010100
00000000011001010000000000000100
00000000000011011111111101010000
11111111110011101111111110010100
00000000010010110000000101100011
00000000011010101111111101100000
00000000001101101111111110000010
00000000000011010000000000101010
00000001011111111111111001111110
11111111000110001111111111111010
11111111110001001111111101011111
11111110101010010000000010110100
00000000111011100000000010101110
00000000010101010000000110110111
11111110111100101111111110111010
00000001000010111111111101100110
11111111011110101111111101110000
00000000011100010000000001110001
11111111010001011111111000100010
00000001100010000000000010101011
11111111000111101111111101011010
00000000101010010000000000101000
00000001010000100000000010110110
11111111011011100000000001011001
00000001000110101111111111001110
00000001001001010000000110011111
00000100111010111111101000101001
00000000010111100000000010111100
11111101010000101111111010111010
00000000100100011111110110111110
11111111010100010000000111101111
00000000010101000000000011001011
11111110100011011111111101110111
00000010000000001111111111011100
11111111100101101111111100101001
11111100111011101111111110111010
00000000101001000000000001001010
00000101001111101111110010000110
11111010111111010000000111001100
00000000110101111111111111001111
11111100110111100000000000000000
11111110110100011111111101010001
00000001011101100000010110010111
00000100110010110000110011111100
11111110100000011111110110000100
11111111110100000000000010000101
00000011100010010000000000001101
11111011010111001111110001010111
11111110101011101111111100111110
11111111000111110000001110010100
11111110001000000000000100110000
11111111010111011111111010011111
11111111111111001111111001000101
11111111000111100000000100000011
11111011111010001111101111010001
00000000010111010000000000110011
00000000100101101111111110011110
00000000010010001111111111001110
00000000111001100000000001001011
00000000000100100000000100011011
00000000000101001111111111001001
11111111110100100000001001110110
00000000111110010000000000010011
11111111010100011111111100100011
11111111111011001111111101001111
00000000001110101111111001101110
00000000010000110000000100110010
11111111001111110000000010100111
00000000011110011111111101110001
00000000110010000000000010001001
11111111111010100000000010000000
00000000010110101111110010100111
11111110110001011111111111110111
00000001101011101111111111011110
11111110110111011111111110001010
11111111101110111111111100110101
11111110010000111111111110010000
00000000011110101111111110110011
11111110010000100000000001100110
00000000001001110000000010001011
00000000100011100000000000011000
00000000011000001111111111001101
11111111101001111111111101010111
11111111010101101111111001110110
11111111011010101111111111101010
11111111110100101111111000001101
00000000110000000000000100111100
00000000011000101111111111011010
11111110111000110000000101001000
00000001001010001111111110110010
11111111100011100000000000110001
11111111100101100000000010100101
00000000110000101111111111110000
11111111100010110000000001001101
00000000010010111111111111110101
00000000010010001111111110010000
11111111100000001111111111100011
11111111111001001111111110110110
00000000110010001111111101111110
11111111011110010000000101001010
11111111100100110000000000101011
00000000001001011111111101011000
11111111100111101111111111010000
11111111110000110000000010011010
00000001010110000000000000000000
11111111110000111111111101100110
11111111100111100000000000110000
00000000001001010000000010101000
11111111100100111111111111010101
11111111011110011111111010110110
00000000110010000000000010000010
11111111111001000000000001001010
11111111100000000000000000011101
00000000010010000000000001110000
00000000010010110000000000001011
11111111100010111111111110110011
00000000110000100000000000010000
11111111100101101111111101011011
11111111100011101111111111001111
00000001001010000000000001001110
11111110111000111111111010111000
00000000011000100000000000100110
00000000110000001111111011000100
11111111110100100000000111110011
11111111011010100000000000010110
11111111010101100000000110001010
11111111101001110000000010101001
00000000011000000000000000110011
00000000100011101111111111101000
00000000001001111111111101110101
11111110010000101111111110011010
00000000011110100000000001001101
11111110010000110000000001110000
11111111101110110000000011001011
11111110110111010000000001110110
00000001101011100000000000100010
11111110110001010000000000001001
00000000010110100000001101011001
11111111111010101111111110000000
00000000110010001111111101110111
00000000011110010000000010001111
11111111001111111111111101011001
00000000010000111111111011001110
00000000001110100000000110010010
11111111111011000000000010110001
11111111010100010000000011011101
00000000111110011111111111101101
11111111110100101111110110001010
00000000000101000000000000110111
00000000000100101111111011100101
00000000111001101111111110110101
00000000010010000000000000110010
00000000100101100000000001100010
00000000010111011111111111001101
11111011111010000000010000101111
11111111000111101111111011111101
11111111111111000000000110111011
11111111010111010000000101100001
11111110001000001111111011010000
11111111000111111111110001101100
11111110101011100000000011000010
11111011010111000000001110101001
00000011100010011111111111110011
11111111110100001111111101111011
11111110100000010000001001111100
00000100110010111111001100000100
00000001011101101111101001101001
11111110110100010000000010101111
00000000010110110000000000000000
00000001001011001111110101111100
11111101111001110000001101101000
11111001111011101111011000111101
11111111100101101111111101000101
11111110001100000000000000100010
00000001111110001111110011100001
00000001011111100000001111100111
00000001001100110000000001100000
00000001101100011111111100100100
11111111100110000000000100000001
11111110001110101111111111011111
00000001110010010000001000111110
00000000101110111111111000001001
11110111101000001111111111101101
00000001000101001111111010111001
11111111001010011111111101010000
11111101101011001111110010101110
11111111000100010000000100010111
11111111100011101111111110011001
11111111100011010000000011010000
11111110101001110000000001010000
11111111010111001111111111001011
11111110101101001111111011100111
00000000001111000000000010011100
00000001001011110000000000000010
00000000001010010000000001010100
00000000000000001111111111101011
11111111010110000000000010111111
11111111101110001111111111111000
00000000001000000000000010111010
11111110110101110000000001011111
11111110111001110000000001000011
00000000000111101111111011111111
11111111111110010000000001001110
00000000111100010000000001010101
00000000010111010000000000101001
11111110011110000000000110000001
11111111011010110000000011010111
11111111101011011111111101101101
00000000101000111111111110010010
11111111011011101111111001110110
00000000100110101111111110101101
00000000100000111111111101010110
00000000101011000000001000010001
00000001000110111111111011011010
11111111011000000000000000001101
00000001000001001111111100110011
00000000100101011111111100111011
00000001001100110000000000000010
00000000101111001111111110000001
00000000011001111111111011111011
11111111111000010000000000101010
00000000001101001111111110011011
11111111000101010000000010110011
11111111011100100000000010100001
11111110101011101111111010100000
11111110101100111111110111111000
11111111010111000000000100110101
00000000111011000000000101111000
00000000000001001111111100000101
00000000001001100000000001101001
00000001101001100000000000010011
00000000001000101111111011101100
00000001101011100000000000000000
00000000001000100000000100010100
00000001101001101111111111101101
00000000001001101111111110010111
00000000000001000000000011111011
00000000111011001111111010001000
11111111010111001111111011001011
11111110101100110000001000001000
11111110101011100000000101100000
11111111011100101111111101011111
11111111000101011111111101001101
00000000001101000000000001100101
11111111111000011111111111010110
00000000011001110000000100000101
00000000101111000000000001111111
00000001001100111111111111111110
00000000100101010000000011000101
00000001000001000000000011001101
11111111011000001111111111110011
00000001000110110000000100100110
00000000101011001111110111101111
00000000100000110000000010101010
00000000100110100000000001010011
11111111011011100000000110001010
00000000101000110000000001101110
11111111101011010000000010010011
11111111011010111111111100101001
11111110011110001111111001111111
00000000010111011111111111010111
00000000111100011111111110101011
11111111111110011111111110110010
00000000000111100000000100000001
11111110111001111111111110111101
11111110110101111111111110100001
00000000001000001111111101000110
11111111101110000000000000001000
11111111010110001111111101000001
00000000000000000000000000010101
00000000001010011111111110101100
00000001001011111111111111111110
00000000001111001111111101100100
11111110101101000000000100011001
11111111010111000000000000110101
11111110101001111111111110110000
11111111100011011111111100110000
11111111100011100000000001100111
11111111000100011111111011101001
11111101101011000000001101010010
11111111001010010000000010110000
00000001000101000000000101000111
11110111101000000000000000010011
00000000101110110000000111110111
00000001110010011111110111000010
11111110001110100000000000100001
11111111100110001111111011111111
00000001101100010000000011011100
00000001001100111111111110100000
00000001011111101111110000011001
00000001111110000000001100011111
11111110001100001111111111011110
11111111100101100000000010111011
11111001111011100000100111000011
11111101111001111111110010011000
00000001001011000000001010000100
00000010101000000000000000000000
00000001110001011111110101100011
11111001011110101111111101110100
00000110011111010000000001111010
00000001111000001111111111010010
11111111110001001111111110000001
11111111001011100000000111011000
11111111101001111111110010001011
11111111110111001111111011001010
00000000010110011111111100001101
11111110100011111111111100010100
11111111101110001111111101011100
11111111010011010000000100100101
00000000111001011111111010010011
11111001101010100000000011100001
11111111111110111111110110111101
11111111110100001111111110001111
00000001110110010000000000111111
00000000101110111111111010001001
11111111111011001111111110101100
11111110011001110000000110110110
00000000011110011111111011100001
11111101101000101111111110110110
11111110100100101111111100111111
00000000010010001111110111111011
00000000010001111111111101110111
11111110001110011111111010101000
00000010010010111111111100001011
11111110010101111111111111111101
11111111100110001111111010111000
11111111001101110000000000010011
00000000000111011111111111010010
00000000101111100000000011011010
11111111101110000000000101001100
00000000111101100000000011000100
00000000111000010000000011100001
00000001100111001111111111100111
00000000111111000000000010010110
11111111100000010000000001100110
11111111010101001111111101000101
11111111111000100000000001000011
00000000001111111111111110101101
00000001000010000000000011000000
11111110110011101111111110110010
11111111111000011111111110000101
00000000000000100000000100010100
11111111111101001111111111110100
11111111001000000000000100000010
11111111110100011111111110011101
11111110011001101111111110011111
11111111111111010000000111001011
11111110110111110000000000111011
11111111010011110000000011001101
00000000011100110000000111001110
11111111110101100000000000010001
00000000001101000000000010111111
00000000001101101111111110010000
00000000011110000000000110110001
11111111111010011111111100011000
00000000001101110000000000000001
00000000001001010000000010100101
11111111110111001111111111110111
00000000011010000000000000010001
11111111110011100000000000011000
11111111100101000000000000000000
11111111110011101111111111101000
00000000011010001111111111101111
11111111110111000000000000001001
00000000001001011111111101011011
00000000001101111111111111111111
11111111111010010000000011101000
00000000011110001111111001001111
00000000001101100000000001110000
00000000001101001111111101000001
11111111110101101111111111101111
00000000011100111111111000110010
11111111010011111111111100110011
11111110110111111111111111000101
11111111111111011111111000110101
11111110011001100000000001100001
11111111110100010000000001100011
11111111001000001111111011111110
11111111111101000000000000001100
00000000000000101111111011101100
11111111111000010000000001111011
11111110110011100000000001001110
00000001000010001111111101000000
00000000001111110000000001010011
11111111111000101111111110111101
11111111010101000000000010111011
11111111100000011111111110011010
00000000111111001111111101101010
00000001100111000000000000011001
00000000111000011111111100011111
00000000111101101111111100111100
11111111101110001111111010110100
00000000101111101111111100100110
00000000000111010000000000101110
11111111001101111111111111101101
11111111100110000000000101001000
11111110010101110000000000000011
00000010010010110000000011110101
11111110001110010000000101011000
00000000010001110000000010001001
00000000010010000000001000000101
11111110100100100000000011000001
11111101101000100000000001001010
00000000011110010000000100011111
11111110011001111111111001001010
11111111111011000000000001010100
00000000101110110000000101110111
00000001110110011111111111000001
11111111110100000000000001110001
11111111111110110000001001000011
11111001101010101111111100011111
00000000111001010000000101101101
11111111010011011111111011011011
11111111101110000000000010100100
11111110100011110000000011101100
00000000010110010000000011110011
11111111110111000000000100110110
11111111101001110000001101110101
11111111001011101111111000101000
11111111110001000000000001111111
00000001111000000000000000101110
00000110011111011111111110000110
11111001011110100000000010001100
00000001110001010000001010011101
11111101100011100000000000000000
00000001011001100000000000010101
11111110101100011111111111100101
00001000110010110000100100110000
00000010000101100000000011111100
11111111010111110000000100000000
00000000110001111111101011011000
00000100000011100000000010000001
00000000011011101111111101100010
11111111000110100000000001011001
11111111001111000000000010101011
00000000101111110000001001110010
00000001110010011111111110110111
11111101110101110000000000111010
00000000110100111111110010001000
11111111010000000000000010111101
00000000110010111111111010101011
11111011111010101111111101011100
00000000000010011111111101100110
00000000110100000000000011010110
00000001000011000000000111011001
11111111110000010000000001100110
11111111011010101111111111100010
00000000111010111111111111001001
11111111111100001111111111011100
11111111111001010000000010010010
00000000000110101111111110010101
00000001011000101111110101000010
11111111001011100000000010100100
00000001110001110000000011101111
00000001011100001111111110100101
00000001101000111111111101010100
11111111000111110000000000101000
00000000100010011111111101111110
11111110100011001111111110010110
00000000001101100000000011011010
11111111010010100000000000100101
11111110101110100000000010001000
11111111101111111111111011011100
11111111100111110000000100010100
11111111001100100000000000010001
00000001001011110000000001010000
11111111110101101111111101101110
00000000010111000000000010011011
11111111111110011111111011110011
00000000000101000000000010110110
11111111110010101111111111111100
00000000100101010000000000100010
00000000000101100000000000111100
11111111001101010000000011101111
11111111100000000000000100000100
00000000011001000000000011010100
00000000000011101111111110101110
00000000111100000000000000101101
00000001001000110000000000000000
00000000000010011111111101110000
11111111000010111111111010100010
00000001001101111111111011000110
00000000100011101111111101001001
11111110000001111111111111111000
11111111101111100000000001011011
11111111101101100000000011010110
00000000011010101111111101101001
11111111100010010000000010011010
00000000111111100000000000000000
11111111100010011111111101100110
00000000011010100000000010010111
11111111101101101111111100101010
11111111101111101111111110100101
11111110000001110000000000001000
00000000100011100000000010110111
00000001001101110000000100111010
11111111000010110000000101011110
00000000000010010000000010010000
00000001001000110000000000000000
00000000111100001111111111010011
00000000000011100000000001010010
00000000011001001111111100101100
11111111100000001111111011111100
11111111001101011111111100010001
00000000000101101111111111000100
00000000100101011111111111011110
11111111110010100000000000000100
00000000000101001111111101001010
11111111111110010000000100001101
00000000010111001111111101100101
11111111110101100000000010010010
00000001001011111111111110110000
11111111001100101111111111101111
11111111100111111111111011101100
11111111101111110000000100100100
11111110101110101111111101111000
11111111010010101111111111011011
00000000001101101111111100100110
11111110100011000000000001101010
00000000100010010000000010000010
11111111000111111111111111011000
00000001101000110000000010101100
00000001011100000000000001011011
00000001110001111111111100010001
11111111001011101111111101011100
00000001011000100000001010111110
00000000000110100000000001101011
11111111111001011111111101101110
11111111111100000000000000100100
00000000111010110000000000110111
11111111011010100000000000011110
11111111110000011111111110011010
00000001000011001111111000100111
00000000110100001111111100101010
00000000000010010000000010011010
11111011111010100000000010100100
00000000110010110000000101010101
11111111010000001111111101000011
00000000110100110000001101111000
11111101110101111111111111000110
00000001110010010000000001001001
00000000101111111111110110001110
11111111001111001111111101010101
11111111000110101111111110100111
00000000011011100000000010011110
00000100000011101111111101111111
00000000110001110000010100101000
11111111010111111111111100000000
00000010000101101111111100000100
00001000110010111111011011010000
11111110101100010000000000011011
00000001011001101111111111101011
00000000011000100000000000000000
00000010100011101111111001011111
00000100010110100000001001000110
11111110001000111111001100101010
00000011000100000000000100100101
00000000101110001111110111110000
00000010110110100000000001001111
11111101011010110000000111010000
11111111011110011111111011110101
00000000011001100000000111000100
11111110110001100000000011111101
11111110010011111111111100010101
00000000010011000000000100011100
00000000010000101111111110000110
00000100000010001111110001101111
11111110101010111111111011110100
00000000011000010000000001101110
00000110000011010000001011011011
00000000100000000000001000101001
11111111011001011111111110101111
00000000000011110000000110001011
11111111011111010000000000011110
11111101101011001111111010000010
11111111101111100000000000101011
11111110111001011111111101110000
00000000010110101111111001110111
00000000000010100000000000001000
00000000101110110000000010001111
00000000101011000000000000000000
00000000101000010000000101111100
00000000100111101111111111101101
11111111110111011111111111100010
00000000000011100000000001001110
00000000100101001111111111101111
00000000001111111111111110010100
00000001000100000000000011101001
11111111100111001111111111011110
00000000111011000000000010011100
11111111110100000000000000101111
11111111110111111111111110110001
11111111100001001111111111000111
00000000010010100000000001001111
11111111101100011111111101110100
00000000100000001111111110110111
11111111010011101111111111010001
11111110101110000000000010011000
11111111111010110000000011110110
11111111110100001111111101010000
00000000000111001111111101000011
00000000110100101111111101101110
11111111010010101111111101100001
00000000001100011111111110010000
00000000010010010000000010111110
00000000100110011111111111111110
11111111010011011111111101100000
11111111001000000000000100110111
11111111100101010000000000111101
00000001010111010000000001101010
00000000100101101111111100110100
00000000000101111111111111010101
00000001000010001111111101111000
11111111010111111111111111000000
11111111101110011111111111110101
00000000011100001111111110001010
11111111111011110000000000000000
00000000011100000000000001110110
11111111101110010000000000001011
11111111010111110000000001000000
00000001000010000000000010001000
00000000000101110000000000101011
00000000100101100000000011001100
00000001010111011111111110010110
11111111100101011111111111000011
11111111001000001111111011001001
11111111010011010000000010100000
00000000100110010000000000000010
00000000010010011111111101000010
00000000001100010000000001110000
11111111010010100000000010011111
00000000110100100000000010010010
00000000000111000000000010111101
11111111110100000000000010110000
11111111111010111111111100001010
11111110101110001111111101101000
11111111010011100000000000101111
00000000100000000000000001001001
11111111101100010000000010001100
00000000010010101111111110110001
11111111100001000000000000111001
11111111110111110000000001001111
11111111110100001111111111010001
00000000111011001111111101100100
11111111100111000000000000100010
00000001000100001111111100010111
00000000001111110000000001101100
00000000100101000000000000010001
00000000000011101111111110110010
11111111110111010000000000011110
00000000100111100000000000010011
00000000101000011111111010000100
00000000101011000000000000000000
00000000101110111111111101110001
00000000000010101111111111111000
00000000010110100000000110001001
11111110111001010000000010010000
11111111101111101111111111010101
11111101101011000000000101111110
11111111011111011111111111100010
00000000000011111111111001110101
11111111011001010000000001010001
00000000100000001111110111010111
00000110000011011111110100100101
00000000011000011111111110010010
11111110101010110000000100001100
00000100000010000000001110010001
00000000010000100000000001111010
00000000010011001111111011100100
11111110010011110000000011101011
11111110110001101111111100000011
00000000011001101111111000111100
11111111011110010000000100001011
11111101011010111111111000110000
00000010110110101111111110110001
00000000101110000000001000010000
00000011000100001111111011011011
11111110001000110000110011010110
00000100010110101111110110111010
00000010100011100000000110100001
00000101111010000000000000000000
00000000111001000000000101011011
00001000011010010000100110010111
00000001111010111111111111110111
00000010100111001111110010101010
11111110110011000000000011100001
11111111000001111111110010101000
00000010001101101111111100100001
11111101101011010000000000011100
11111110111000001111111101101000
00000000010000011111111111000110
00000001001011001111111111011101
00000011101110011111111001100011
11111110011100011111111110110011
11111100000001010000010000101010
00000000011001110000000111011000
00000000110101001111110110110000
00000000111011011111110111101111
11111111101000000000000001000011
00000000110011000000000010010111
11111111111110100000000100000010
00000000010100100000000001010100
00000000001111100000000010000000
00000000000001011111111001001100
11111111010101110000000011000110
00000001000111101111111110011111
11111111010011111111111101011111
11111111111010101111111010001110
00000001010001111111111100001100
00000000111111110000000000110100
11111111111111011111111110001101
11111111101100101111111111011111
00000001001001000000000000000000
00000001010010110000000001101110
11111111111011100000000000010001
00000000100011110000000001101110
11111110100110100000000000111000
00000000110111111111111110001011
11111111100000001111111101010011
00000000001111110000000000111000
00000000001101001111111110100011
00000000001001010000000101110010
11111110110010100000000011110010
11111111110101110000000000101101
11111111010111011111111111000011
00000000000101011111111111111101
11111111010001000000000000111011
00000001001000101111111111011111
11111111111011001111111111000100
00000000100010110000000010000010
11111111010000011111111111011000
00000000101111010000000111000011
11111110011100010000000001111010
11111110110111011111111001101101
11111110110100101111111100010111
00000000110011000000000000000110
11111111001011000000001000000011
11111111001111001111111011100001
00000000001111000000000110110010
00000001010110111111111110001001
11111111110000101111111101011101
00000000111100101111111101001011
11111111010110101111111101010010
00000000010100111111111110100001
00000000010101100000000000000000
00000000010100110000000001011111
11111111010110100000000010101110
00000000111100100000000010110101
11111111110000100000000010100011
00000001010110110000000001110111
00000000001111001111111001001110
11111111001111000000000100011111
11111111001011001111110111111101
00000000110011001111111111111010
11111110110100100000000011101001
11111110110111010000000110010011
11111110011100011111111110000110
00000000101111011111111000111101
11111111010000010000000000101000
00000000100010111111111101111110
11111111111011000000000000111100
00000001001000100000000000100001
11111111010001001111111111000101
00000000000101010000000000000011
11111111010111010000000000111101
11111111110101111111111111010011
11111110110010101111111100001110
00000000001001011111111010001110
00000000001101000000000001011101
00000000001111111111111111001000
11111111100000000000000010101101
00000000110111110000000001110101
11111110100110101111111111001000
00000000100011111111111110010010
11111111111011101111111111101111
00000001010010111111111110010010
00000001001001000000000000000000
11111111101100100000000000100001
11111111111111010000000001110011
00000000111111111111111111001100
00000001010001110000000011110100
11111111111010100000000101110010
11111111010011110000000010100001
00000001000111100000000001100001
11111111010101111111111100111010
00000000000001010000000110110100
00000000001111101111111110000000
00000000010100101111111110101100
11111111111110101111111011111110
00000000110011001111111101101001
11111111101000001111111110111101
00000000111011010000001000010001
00000000110101000000001001010000
00000000011001111111111000101000
11111100000001011111101111010110
11111110011100010000000001001101
00000011101110010000000110011101
00000001001011000000000000100011
00000000010000010000000000111010
11111110111000000000000010011000
11111101101011011111111111100100
00000010001101100000000011011111
11111111000001110000001101011000
11111110110011001111111100011111
00000010100111000000001101010110
00000001111010110000000000001001
00001000011010011111011001101001
00000000111001001111111010100101
11111110111100000000000000000000
00000000011110110000000000001111
11111011110110111111110110000100
11111101111001100000000001111001
11111110011000001111110111011000
00000000100001011111111110111110
11111111001100011111110111010001
00000100100001001111110101001011
11111111111011110000000111100010
11111111001000001111111011100101
00000000100110001111111101010011
11111111001100100000001011100100
00000000001100000000000111111000
11111111111101001111111101110000
00001000010101000001010010100001
00000000001001001111111110011111
11111111001101000000000010111111
11111111011110001111111110110001
00000001001010110000000100001100
11111111011101100000000111001100
11111111000011111111111101000011
11111110111000010000001111001110
11111111100101101111111010100010
00000000101010110000000001000111
00000000001111010000000001000101
00000000100010010000000001100011
11111111111000111111111101110110
11111111111001111111111101010001
00000000010001101111111110001010
11111111111101100000000000011111
00000000111010011111111111101000
00000001000000101111111011101001
11111111011111111111111111001000
00000000100110101111111100011101
00000000111010010000000100100000
11111110100111101111111010110111
11111111100001000000000001111111
11111111001100000000000001000110
11111110000100001111111011011111
00000000101101001111111011110110
00000000001001010000000011001110
00000000101110110000000010100010
00000000010011101111111000001001
00000001010001001111111010110010
11111111110111110000000100010100
11111111110011010000000010111010
11111111011100101111111110101010
11111111010110100000000101011001
00000000111000010000000001111001
11111111111101001111111011001100
00000000011111011111111110100001
11111111010101000000000010111111
00000000011010111111111110000110
00000000000110011111111101101110
00000000100011000000000010111010
11111111110101001111111101010111
00000000100111011111111010100011
00000000010010101111111110111001
11111110101010110000000010011010
11111111110101010000000100001011
00000010000001101111111110011110
11111110111010110000000001011101
11111111100001111111111011001101
11111111000111011111111011000000
00000001010100110000000000000000
11111111000111010000000101000000
11111111100001110000000100110011
11111110111010111111111110100011
00000010000001100000000001100010
11111111110101011111111011110101
11111110101010111111111101100110
00000000010010100000000001000111
00000000100111010000000101011101
11111111110101000000000010101001
00000000100011001111111101000110
00000000000110010000000010010010
00000000011010110000000001111010
11111111010101001111111101000001
00000000011111010000000001011111
11111111111101000000000100110100
00000000111000011111111110000111
11111111010110101111111010100111
11111111011100100000000001010110
11111111110011011111111101000110
11111111110111111111111011101100
00000001010001000000000101001110
00000000010011100000000111110111
00000000101110111111111101011110
00000000001001011111111100110010
00000000101101000000000100001010
11111110000100000000000100100001
11111111001100001111111110111010
11111111100001001111111110000001
11111110100111100000000101001001
00000000111010011111111011100000
00000000100110100000000011100011
11111111011111110000000000111000
00000001000000100000000100010111
00000000111010010000000000011000
11111111111101101111111111100001
00000000010001100000000001110110
11111111111001110000000010101111
11111111111000110000000010001010
00000000100010011111111110011101
00000000001111011111111110111011
00000000101010111111111110111001
11111111100101100000000101011110
11111110111000011111110000110010
11111111000011110000000010111101
11111111011101101111111000110100
00000001001010111111111011110100
11111111011110000000000001001111
11111111001101001111111101000001
00000000001001000000000001100001
00001000010101001110101101011111
11111111111101000000000010010000
00000000001100001111111000001000
11111111001100101111110100011100
00000000100110000000000010101101
11111111001000000000000100011011
11111111111011111111111000011110
00000100100001000000001010110101
11111111001100010000001000101111
00000000100001010000000001000010
11111110011000000000001000101000
11111101111001101111111110000111
11111011110110110000001001111100
00000000011110111111111111110001
00000010010110110000000000000000
11111111000110010000000000000000
00000000011110110000001010101100
00000010101100000000011001101000
00000010000010111111111110111010
11111110011110111111111100011010
00000001000000011111100100000000
11111110100111000000000101001110
00000000001101101111111110011101
11111111100011111111111111110000
00000000111001101111111101001100
00000000111101000000000001010000
00000110011111111111110100000100
00000000110001101111111100010011
00001010100100110000001101101011
11111111000001100000000001001111
11111111011010101111111110101110
11111111000000011111111101111011
11111111101001100000000001101100
00000001101010101111111110110010
11111111100010000000001011000110
11111110110100000000000000000011
00000000101001101111111111010010
00000001000010100000000100100001
00000000000011101111111100110011
11111111100101110000000100000110
11111111110111101111111111111100
11111111010101100000001100010000
11111111001100011111111110010010
11111110101100000000000001001110
00000000101011001111111111101100
11111111101110000000000100010101
11111111101111111111111010010000
11111111010110110000000000011011
11111111101101001111111010000011
00000000011001000000000011100010
00000000101010001111111110011000
11111111100001100000000100101011
11111111101110111111111001011110
00000000101000101111111111010101
00000001001000010000000010001100
00000001011001010000000000111001
11111111100110100000000010101010
11111111100110011111111100111011
00000000010110111111111100010010
00000000110010001111111101111000
11111111101101001111111101101001
11111110010000110000000011000110
11111110111111100000000010101100
11111111000110101111111100111000
11111111011010010000000000000111
00000001011010000000000011010111
00000000000011010000000001111110
11111111011110011111111011010010
11111111101001000000000010111000
00000000001001111111111100110101
11111111111111011111111100001010
11111111100110111111111110100010
11111111111001101111111111001001
00000000000011111111111011000101
00000000001010011111111111111010
00000000110110010000000001001001
00000000000101011111111100001111
00000000101000100000000011011110
00000001111011000000000000000000
00000000101000101111111100100010
00000000000101010000000011110001
00000000110110011111111110110111
00000000001010010000000000000110
00000000000011110000000100111011
11111111111001100000000000110111
11111111100110110000000001011110
11111111111111010000000011110110
00000000001001110000000011001011
11111111101001001111111101001000
11111111011110010000000100101110
00000000000011011111111110000010
00000001011010001111111100101001
11111111011010011111111111111001
11111111000110100000000011001000
11111110111111101111111101010100
11111110010000111111111100111010
11111111101101000000000010010111
00000000110010000000000010001000
00000000010110110000000011101110
11111111100110010000000011000101
11111111100110101111111101010110
00000001011001011111111111000111
00000001001000011111111101110100
00000000101000100000000000101011
11111111101110110000000110100010
11111111100001101111111011010101
00000000101010000000000001101000
00000000011001001111111100011110
11111111101101000000000101111101
11111111010110111111111111100101
11111111101111110000000101110000
11111111101110001111111011101011
00000000101011000000000000010100
11111110101100001111111110110010
11111111001100010000000001101110
11111111010101101111110011110000
11111111110111100000000000000100
11111111100101111111111011111010
00000000000011100000000011001101
00000001000010101111111011011111
00000000101001100000000000101110
11111110110100001111111111111101
11111111100010001111110100111010
00000001101010100000000001001110
11111111101001101111111110010100
11111111000000010000000010000101
11111111011010100000000001010010
11111111000001101111111110110001
00001010100100111111110010010101
00000000110001100000000011101101
00000110011111110000001011111100
00000000111101001111111110110000
00000000111001100000000010110100
11111111100011110000000000010000
00000000001101100000000001100011
11111110100111001111111010110010
00000001000000010000011100000000
11111110011110110000000011100110
00000010000010110000000001000110
00000010101100001111100110011000
00000000011110111111110101010100
11111111000110010000000000000000
11111110010100100000000000000000
11111110101011011111111101001100
00000001000111111111111101011111
00000000000011110000011100001101
00000001000110101111111110100100
11111111101101000000000011111110
00000111011100011111101111110010
00000100001010010000001111111111
11111111100011101111111010000101
00000000011111001111111000000010
00000001001110000000000111110001
00000000101010001111111011111001
00000011111100110000000100110011
11111110111101000000000001101110
11111001011111011111110111010110
11111111110101100000000001111001
11111111011000100000000000011011
11111101110110101111111100000011
00000000100101110000000010010001
11111111110011110000000001001101
00000000011000111111111110110100
11111110101110001111110010110001
11111110101011110000000011101100
11111111101110011111111110000111
11111111100100010000000000010100
00000000010000110000000000101001
11111110011111111111111101000011
00000000111011110000001000100010
11111110110111000000000000010011
11111111110101000000000010101000
11111111000001010000000010010011
11111111001010011111111101000100
00000001001011011111111011001101
00000000110000001111111010011101
00000000100000110000000000010011
00000000010010111111111011100111
00000000010011001111111111011011
00000000000011010000000000001111
11111111100111010000000101100001
11111111101111001111111011101101
11111111110100000000000010000001
11111111000111011111111011101010
11111111110100000000000001100111
11111111110111111111111111000001
11111111101101000000000000010000
11111111100001000000000001110010
00000000000000100000000011011111
11111111000011110000000001101111
11111110111100100000000101011110
00000000111001000000000110101000
00000000110000111111111111110001
00000001010111011111111101100010
11111111001111010000000010010111
00000001000011110000000010110111
00000001011100001111111100101001
11111110011001000000000001010100
00000000110010001111111100011011
00000000000111001111111100111111
00000000101100001111111110111100
00000000111001111111111101000000
00000000001101011111111101100011
00000000001101000000000001111010
00000000000100001111111111101001
11111111101000011111111101001111
00000010011001100000000000000000
11111111101000010000000010110001
00000000000100000000000000010111
00000000001101001111111110000110
00000000001101010000000010011101
00000000111001110000000011000000
00000000101100000000000001000100
00000000000111000000000011000001
00000000110010000000000011100101
11111110011001001111111110101100
00000001011100000000000011010111
00000001000011111111111101001001
11111111001111011111111101101001
00000001010111010000000010011110
00000000110000110000000000001111
00000000111001001111111001011000
11111110111100101111111010100010
11111111000011111111111110010001
00000000000000101111111100100001
11111111100001001111111110001110
11111111101101001111111111110000
11111111110111110000000000111111
11111111110100001111111110011001
11111111000111010000000100010110
11111111110100001111111101111111
11111111101111000000000100010011
11111111100111011111111010011111
00000000000011011111111111110001
00000000010011000000000000100101
00000000010010110000000100011001
00000000100000111111111111101101
00000000110000000000000101100011
00000001001011010000000100110011
11111111001010010000000010111100
11111111000001011111111101101101
11111111110101001111111101011000
11111110110111001111111111101101
00000000111011111111110111011110
11111110011111110000000010111101
00000000010000111111111111010111
11111111100100011111111111101100
11111111101110010000000001111001
11111110101011111111111100010100
11111110101110000000001101001111
00000000011000110000000001001100
11111111110011111111111110110011
00000000100101111111111101101111
11111101110110100000000011111101
11111111011000101111111111100101
11111111110101101111111110000111
11111001011111010000001000101010
11111110111101001111111110010010
00000011111100111111111011001101
00000000101010000000000100000111
00000001001110001111111000001111
00000000011111000000000111111110
11111111100011100000000101111011
00000100001010011111110000000001
00000111011100010000010000001110
11111111101101001111111100000010
00000001000110100000000001011100
00000000000011111111100011110011
00000001000111110000000010100001
11111110101011010000000010110100
11111110110000110000000000000000
11111111110011100000000101100101
00000001101000000000000010111110
00000000100110011111101100100011
11111111010010000000000000101011
11111111110101100000000010100110
00000100010110100000000011100011
11111111110010101111101010010101
00000000110100001111111101000011
00000000011000110000000001111000
11111111100110111111111011010111
00000000101011011111111000101110
11111010101110001111111100011110
00000000000000111111111101110010
11110011110001110000011010010101
11111111011000011111111110011000
11111110101100000000000010000111
11111100111111111111110101111011
00000001010101011111111101110011
11111111001000010000000101000110
00000000100011000000000001001111
00000001001101111111111101100110
00000000111100111111111111110000
00000000011010101111111101101111
00000001001010111111111110001010
00000000000010010000000001001101
11111111001101001111111011111101
00000000000001010000000111101111
11111111111000100000000001010010
11111111010010010000000001100101
00000000100010100000000000001100
11111111101110101111111111011000
00000000011011001111111110000001
00000001010110001111111011110010
00000000001101111111111100010110
11111111001011110000000001010000
11111111100001000000000010001100
11111111111110110000000001100001
11111111111011011111111001101010
00000000000000001111111011111101
11111111011010010000000010101100
00000001000100100000000000111011
11111111011110011111111100100100
11111111100011101111111101011011
00000000000000010000000010010100
00000000000000001111111010101101
11111111110000001111111010111001
11111111110100101111111111001111
00000000000111110000000010100100
00000000011101001111111111000011
00000000000011111111111111111101
00000001000110010000000001000010
11111111111011100000000000000100
11111111011110101111111111000100
00000000001111101111111100000100
00000000001110110000000101110101
11111111101110110000000000010110
11111111110101110000000010111001
00000000011111111111111100011100
00000000000111100000000111010001
00000000000101001111111111011110
00000000011001100000000001101011
11111111111111110000000010011011
00000000001000010000000000010011
00000000000011100000000000000000
00000000001000011111111111101101
11111111111111111111111101100101
00000000011001101111111110010101
00000000000101000000000000100010
00000000000111101111111000101111
00000000011111110000000011100100
11111111110101111111111101000111
11111111101110111111111111101010
00000000001110111111111010001011
00000000001111100000000011111100
11111111011110100000000000111100
11111111111011101111111111111100
00000001000110011111111110111110
00000000000011110000000000000011
00000000011101000000000000111101
00000000000111111111111101011100
11111111110100100000000000110001
11111111110000000000000101000111
00000000000000000000000101010011
00000000000000011111111101101100
11111111100011100000000010100101
11111111011110010000000011011100
00000001000100101111111111000101
11111111011010011111111101010100
00000000000000000000000100000011
11111111111011010000000110010110
11111111111110111111111110011111
11111111100001001111111101110100
11111111001011111111111110110000
00000000001101110000000011101010
00000001010110000000000100001110
00000000011011000000000001111111
11111111101110100000000000101000
00000000100010101111111111110100
11111111010010011111111110011011
11111111111000101111111110101110
00000000000001011111111000010001
11111111001101000000000100000011
00000000000010011111111110110011
00000001001010110000000001110110
00000000011010100000000010010001
00000000111100110000000000010000
00000001001101110000000010011010
00000000100011001111111110110001
11111111001000011111111010111010
00000001010101010000000010001101
11111100111111110000001010000101
11111110101100001111111101111001
11111111011000010000000001101000
11110011110001111111100101101011
00000000000000110000000010001110
11111010101110000000000011100010
00000000101011010000000111010010
11111111100110110000000100101001
00000000011000111111111110001000
00000000110100000000000010111101
11111111110010100000010101101011
00000100010110101111111100011101
11111111110101101111111101011010
11111111010010001111111111010101
00000000100110010000010011011101
00000001101000001111111101000010
11111111110011101111111010011011
11111111110100100000000000000000
00000001111001100000000000011000
00000010010011000000010101010100
00000011110000100000001110000010
00000001001101100000000000001111
11111111100110111111111100100110
11111110010101111111100111000100
11111001110001010000001101100001
00000000001111000000000111010000
11111111100101001111111111001000
11111101000101101111111011100010
00000000001110111111110111110101
00000000001101011111110101100110
11111110000000111111110111111011
11110111101111110000011001010101
11111110010111111111111010010101
11111111110010011111111111111001
00000001000010110000000011010011
00000010001011000000000111000000
11111111100011111111111000111001
11111111101111001111111001100100
00000001110111100000000110011011
00000000000010100000000011010010
00000001110110100000000010000101
11111111011001001111111111110011
11111111101111000000000000010100
11111111100101001111111101010010
00000000100011100000000001110010
11111110110010010000000011010001
11111110011101100000000011000010
11111111010001000000000000111111
00000000001011000000000001000001
00000001011101110000000001111100
11111111101110101111111110111110
11111110110001111111111101110000
00000000101111001111111011000111
11111111111010101111111100110100
00000000100000110000000100101001
00000000010101111111111110001101
11111111100100100000000010000011
00000000010111111111111110100101
11111111000110000000000010110010
11111111100001111111111111111111
00000000100010100000000000100001
00000000001011011111111001011010
11111111110000110000000001110010
11111111101101101111111101100101
11111111111000001111111111000010
00000000111010010000000000110110
11111111110011010000000000101011
00000001000010001111111101001011
00000000110100011111111011010101
11111111101011011111111101000001
00000000010000111111111110011101
11111110110001111111111100101001
00000001011000001111111110111001
11111111110000110000000010010101
11111111110111111111111111110100
11111111011100101111111101011011
00000001000001101111111011110101
11111110110100000000000001101011
11111111101000100000000000111001
00000001000000110000000100101101
11111111111000110000000010011001
00000001100101010000000000000000
11111111111000111111111101100111
00000001000000111111111011010011
11111111101000101111111111000111
11111110110100001111111110010101
00000001000001100000000100001011
11111111011100100000000010100101
11111111110111110000000000001100
11111111110000111111111101101011
00000001011000000000000001000111
11111110110001110000000011010111
00000000010000110000000001100011
11111111101011010000000010111111
00000000110100010000000100101011
00000001000010000000000010110101
11111111110011011111111111010101
00000000111010011111111111001010
11111111111000000000000000111110
11111111101101100000000010011011
11111111110000111111111110001110
00000000001011010000000110100110
00000000100010101111111111011111
11111111100001110000000000000001
11111111000110001111111101001110
00000000010111110000000001011011
11111111100100101111111101111101
00000000010101110000000001110011
00000000100000111111111011010111
11111111111010100000000011001100
00000000101111000000000100111001
11111110110001110000000010010000
11111111101110100000000001000010
00000001011101111111111110000100
00000000001011001111111110111111
11111111010001001111111111000001
11111110011101101111111100111110
11111110110010011111111100101111
00000000100011101111111110001110
11111111100101000000000010101110
11111111101111001111111111101100
11111111011001000000000000001101
00000001110110101111111101111011
00000000000010101111111100101110
00000001110111101111111001100101
11111111101111000000000110011100
11111111100011110000000111000111
00000010001011001111111001000000
00000001000010111111111100101101
11111111110010010000000000000111
11111110010111110000000101101011
11110111101111111111100110101011
11111110000000110000001000000101
00000000001101010000001010011010
00000000001110110000001000001011
11111101000101100000000100011110
11111111100101000000000000111000
00000000001111001111111000110000
11111001110001011111110010011111
11111110010101110000011000111100
11111111100110110000000011011010
00000001001101101111111111110001
00000011110000101111110001111110
00000010010011001111101010101100
00000001111001101111111111101000
11111101110010100000000000000000
11111101011101101111110111010001
11111111111101010000000110001010
00000100011010000000001011010111
00000011111110110000000001011111
11111110100011000000000110010001
11111110101011000000000011111111
11111001110111011111101111011000
11111111100011110000000010000011
00000001000011101111111110010000
00000001011001100000000101111011
00000001001111010000000110010110
11111011101010010000000111001110
11111110111111000000000011000101
11111110111101001111110010110001
00000001000101110000000010110100
11111111011100101111111110001000
11111101000110010000000001110010
00000000111010011111111101110100
00000001010001000000000100110101
11111111111110001111110101011000
11111111101000011111111101011000
00000000100100110000000000010101
11111111000000010000000011010101
11111111101110001111111101101010
00000000010101101111111100111010
00000000111100000000000101111111
11111101111000100000000111001110
11111110111011110000000101110101
00000001001100011111111101011110
11111111101111001111111111100011
11111111111110111111111110100100
00000001001001110000000000111111
11111111100111110000000000001010
11111111100100100000000001100011
11111111001011111111111001010111
11111111100111010000000010101100
00000000001101110000000011010100
11111111000100110000000010110000
11111111101001001111111110010110
11111111100001011111111111101011
11111111101000001111111001011010
00000000010001100000000001100001
00000000001000101111111100110111
00000000101000111111111010101100
11111111011000000000000000010001
11111111000100110000000010101001
00000000010101011111111110100001
00000000101001010000000001001010
00000000000000000000000000000110
00000000110101111111111110001111
00000000010000011111111110111000
11111110100011101111111111100011
00000000001101101111111110001001
11111111001100000000000010101111
11111111110011111111111101100001
00000000100101011111111110110001
11111110110110000000000011011001
00000000001010101111111110000001
11111110000100100000000011110000
00000000010000001111111111000110
11111111101110111111111100000010
00000000110000000000000010011011
00000000111000100000000000100011
11111111010110100000000000000000
00000000111000101111111111011101
00000000110000001111111101100101
11111111101110110000000011111110
00000000010000000000000000111010
11111110000100101111111100010000
00000000001010100000000001111111
11111110110110001111111100100111
00000000100101010000000001001111
11111111110011110000000010011111
11111111001100001111111101010001
00000000001101100000000001110111
11111110100011100000000000011101
00000000010000010000000001001000
00000000110101110000000001110001
00000000000000001111111111111010
00000000101001011111111110110110
00000000010101010000000001011111
11111111000100111111111101010111
11111111011000001111111111101111
00000000101000110000000101010100
00000000001000100000000011001001
00000000010001101111111110011111
11111111101000000000000110100110
11111111100001010000000000010101
11111111101001000000000001101010
11111111000100111111111101010000
00000000001101111111111100101100
11111111100111011111111101010100
11111111001011110000000110101001
11111111100100101111111110011101
11111111100111111111111111110110
00000001001001111111111111000001
11111111111110110000000001011100
11111111101111000000000000011101
00000001001100010000000010100010
11111110111011111111111010001011
11111101111000101111111000110010
00000000111100001111111010000001
00000000010101100000000011000110
11111111101110000000000010010110
11111111000000011111111100101011
00000000100100111111111111101011
11111111101000010000000010101000
11111111111110000000001010101000
00000001010001001111111011001011
00000000111010010000000010001100
11111101000110011111111110001110
11111111011100100000000001111000
00000001000101111111111101001100
11111110111101000000001101001111
11111110111111001111111100111011
11111011101010011111111000110010
00000001001111011111111001101010
00000001011001101111111010000101
00000001000011100000000001110000
11111111100011111111111101111101
11111001110111010000010000101000
11111110101011001111111100000001
11111110100011001111111001101111
00000011111110111111111110100001
00000100011010001111110100101001
11111111111101011111111001110110
11111101011101100000001000101111
00000000000011110000000000000000
11111110101011110000000000011010
00000000100000101111110111010100
00000000100010001111011111001111
11111111010101011111111101110000
00000001010101111111111000110010
00000110010010011111111011100001
00000101011001011111110110011011
11111101101001100000000000000101
00000000101011001111111111010101
00000000100100110000001001011010
11111101110101010000010000000000
00000000010100101111111111010111
00000000011000010000000011011000
00000000000100111111011101100011
00000001000110110000000000000011
11111110110110010000000000000010
00000101110011010000000011011111
00000000111001110000000101101011
11111111001101101111111111001110
00000001110011010000000000011000
11111111101000001111111111000111
00000000010010010000000000011111
11111111101111111111111111101010
11111111101110010000000011000100
11111111101101111111111000101110
00000000000111101111111101010110
00000001001100011111111110001110
11111111101010001111111100100000
00000000110110111111111111110111
00000000000111111111111110101001
11111111111101111111111101011011
11111111100011111111111101011000
00000001110001011111111110001110
00000001000101100000000011010011
11111111100111011111111111111011
00000000110110110000000000101110
00000000001010010000000001001100
00000000011001000000000011100001
00000001101100101111111101100010
11111111111001000000000000101110
11111111101110000000000010100000
00000000001001101111111111000010
11111111010111010000000100101000
00000000011001101111111110000011
11111111100100101111111100011001
11111111000100100000000001110111
00000000000110100000000000111010
00000000100100010000000100110001
11111111110011000000000011101000
00000000100110000000000011101111
00000000001010001111111111100100
11111111001010100000000100000010
11111110111000111111111111000000
00000000010010001111111101110100
00000000010000110000000000011001
00000000010100011111111111000111
11111110110010001111111101010011
11111110101100001111111111010011
00000000010001000000000000110000
11111111011010101111111111101111
11111110111101010000000000000100
11111111111101111111111101010111
00000000100000111111111111011110
11111110010000110000000000000000
00000000100000110000000000100010
11111111111101110000000010101001
11111110111101011111111111111100
11111111011010100000000000010001
00000000010001001111111111010000
11111110101100000000000000101101
11111110110010000000000010101101
00000000010100010000000000111001
00000000010000111111111111100111
00000000010010000000000010001100
11111110111000110000000001000000
11111111001010101111111011111110
00000000001010000000000000011100
00000000100110001111111100010001
11111111110011001111111100011000
00000000100100011111111011001111
00000000000110101111111111000110
11111111000100101111111110001001
11111111100100100000000011100111
00000000011001100000000001111101
11111111010111011111111011011000
00000000001001100000000000111110
11111111101110001111111101100000
11111111111001001111111111010010
00000001101100100000000010011110
00000000011001001111111100011111
00000000001010011111111110110100
00000000110110111111111111010010
11111111100111010000000000000101
00000001000101101111111100101101
00000001110001010000000001110010
11111111100011110000000010101000
11111111111101110000000010100101
00000000000111110000000001010111
00000000110110110000000000001001
11111111101010000000000011100000
00000001001100010000000001110010
00000000000111100000000010101010
11111111101101110000000111010010
11111111101110011111111100111100
11111111101111110000000000010110
00000000010010011111111111100001
11111111101000000000000000111001
00000001110011011111111111101000
11111111001101100000000000110010
00000000111001111111111010010101
00000101110011011111111100100001
11111110110110011111111111111110
00000001000110111111111111111101
00000000000100110000100010011101
00000000011000011111111100101000
00000000010100100000000000101001
11111101110101011111110000000000
00000000100100111111110110100110
00000000101011000000000000101011
11111101101001101111111111111011
00000101011001010000001001100101
00000110010010010000000100011111
00000001010101110000000111001110
11111111010101010000000010010000
00000000100010000000100000110001
00000000100000100000001000101100
11111110101011111111111111100110
11111110111010000000000000000000
00000001101010100000000010110000
00000001100011011111111101101011
00000000001001100000011100000010
00000000011100111111111011001001
00000000111100111111111011111111
00001001110100010000001100001111
11111100011101110000000000101100
00000001111011000000000011111110
00000001101110011111111110010110
11111110110011100000000100100001
00000001011000011111111010101110
11111110011010101111111000101000
00000101111110000000000010100101
11111110100000100000001000100001
00000000000111100000000000001100
11111111111000000000000011100011
00000001101110111111111100101001
11111111111111011111111011000110
00000000010011110000000011101010
00000000000101111111111111000011
11111111001000111111111101010110
00000000101000110000000000001111
11111111001001000000000000010011
11111111110111101111111001101010
11111111110110011111111111000001
11111110110000010000000000010001
11111111001001011111111101001011
00000000011010000000000000000000
00000001101010111111111111101000
00000010010100000000000000111010
00000000110100011111111010111010
00000000110000111111111110001101
11111111110000101111111101001010
11111111010000010000000001101111
00000000110000101111111111111111
11111111110001111111111010011010
11111111000101101111111110000011
00000000010010000000000000010011
11111111101111011111111110111110
11111111101111101111111101011001
11111110101011100000000001010001
11111111111100000000000000001110
11111111000101011111111111011110
11111111111001110000000000000111
11111111110000111111111101010010
11111111000101101111111010001100
00000000111111100000000001011101
11111111011101000000000000111001
11111111101111111111111110001100
11111111110111111111111100110001
11111111110110000000001000111000
00000001100001111111111110110010
00000000011100011111111100111011
11111111101100110000000010100101
00000000001000011111111100101011
00000000101010010000000000001110
11111110000100110000000010011101
00000001100101110000000110001110
00000000001000101111111110111110
11111111111011100000000010000010
00000000011001001111111101100111
11111111000011111111111110111100
00000000010101101111111011100010
00000000011001110000000000000000
00000000010101100000000100011110
11111111000011110000000001000100
00000000011001000000000010011001
11111111111011101111111101111110
00000000001000100000000001000010
00000001100101111111111001110010
11111110000100111111111101100011
00000000101010011111111111110010
00000000001000010000000011010101
11111111101100111111111101011011
00000000011100010000000011000101
00000001100001110000000001001110
11111111110110001111110111001000
11111111110111110000000011001111
11111111101111110000000001110100
11111111011101001111111111000111
00000000111111101111111110100011
11111111000101100000000101110100
11111111110000110000000010101110
11111111111001111111111111111001
11111111000101010000000000100010
11111111111100001111111111110010
11111110101011101111111110101111
11111111101111100000000010100111
11111111101111010000000001000010
00000000010010001111111111101101
11111111000101100000000001111101
11111111110001110000000101100110
00000000110000100000000000000001
11111111010000011111111110010001
11111111110000100000000010110110
00000000110000110000000001110011
00000000110100010000000101000110
00000010010100001111111111000110
00000001101010110000000000011000
00000000011010000000000000000000
11111111001001010000000010110101
11111110110000011111111111101111
11111111110110010000000000111111
11111111110111100000000110010110
11111111001001001111111111101101
00000000101000111111111111110001
11111111001000110000000010101010
00000000000101110000000000111101
00000000010011111111111100010110
11111111111111010000000100111010
00000001101110110000000011010111
11111111111000001111111100011101
00000000000111101111111111110100
11111110100000101111110111011111
00000101111110001111111101011011
11111110011010100000000111011000
00000001011000010000000101010010
11111110110011101111111011011111
00000001101110010000000001101010
00000001111011001111111100000010
11111100011101111111111111010100
00001001110100011111110011110001
00000000111100110000000100000001
00000000011100110000000100110111
00000000001001101111100011111110
00000001100011010000000010010101
00000001101010101111111101010000
00000010111101110000000000000000
11111111010101111111111110010100
11111101110100000000000001100110
00000001011011101111110011000101
11111111010100111111111011101011
00000001100100100000000100110010
00000101110111110000001110100010
11111010001100000000001111000110
00000000101111001111111101111110
11111111110100111111111110101100
11111101100111111111110111110101
11111101011001011111111100110100
11111110111100001111111000001111
11111111100111001111111001010111
11111100011101010000100011111100
00000000011001011111111100100101
00000000111001111111111011101101
00000001001110100000000101110100
00000001110110111111111110100101
11111110110010110000000001111111
11111111101000100000000001100101
11111110000010100000000010001100
00000000000101111111110110101101
11111111011100010000000000100011
00000001001001110000000101111000
00000000010000011111111110111001
00000000000000010000000000110110
00000000001100101111111111011110
11111111100111010000000000001011
11111111010000010000000001001010
11111110110011001111111111000011
11111111100111011111111101110100
11111110110101111111111111001010
00000000001011001111111011011011
00000000001011101111111101100110
00000000010100101111111111101110
00000000101110000000000010101000
11111101100000010000000011111001
00000000100000010000000011100100
11111111001100001111111101110001
11111111111001011111111010101010
11111111100010100000000101000101
00000000110110001111111110000111
11111111111111001111111000001110
11111111000100110000000000010111
00000000001101000000000001000110
11111111110010100000000001111111
11111111010001111111111010111101
11111110100111110000000001100011
00000000010001111111111010011100
00000001100100110000000000011011
11111111011000101111111101111111
11111111001000000000000001101111
11111111101011011111111110110100
00000000101010111111111100111001
11111111000110011111111101111011
11111111010001111111111101010111
11111110001111000000000100001011
11111111111001001111111100110010
11111110101110010000000001101011
00000000100010111111111101110111
00000000000000010000000000001110
00000000000001100000000010011001
00000001011111000000000001001010
00000000011001000000000000000000
00000001011111001111111110110110
00000000000001101111111101100111
00000000000000011111111111110010
00000000100010110000000010001001
11111110101110011111111110010101
11111111111001000000000011001110
11111110001111001111111011110101
11111111010001110000000010101001
11111111000110010000000010000101
00000000101010110000000011000111
11111111101011010000000001001100
11111111001000001111111110010001
11111111011000100000000010000001
00000001100100111111111111100101
00000000010001110000000101100100
11111110100111111111111110011101
11111111010001110000000101000011
11111111110010101111111110000001
00000000001101001111111110111010
11111111000100111111111111101001
11111111111111000000000111110010
00000000110110000000000001111001
11111111100010101111111010111011
11111111111001010000000101010110
11111111001100000000000010001111
00000000100000011111111100011100
11111101100000011111111100000111
00000000101110001111111101011000
00000000010100100000000000010010
00000000001011100000000010011010
00000000001011000000000100100101
11111110110101110000000000110110
11111111100111010000000010001100
11111110110011000000000000111101
11111111010000011111111110110110
11111111100111011111111111110101
00000000001100100000000000100010
00000000000000011111111111001010
00000000010000010000000001000111
00000001001001111111111010001000
11111111011100011111111111011101
00000000000101110000001001010011
11111110000010101111111101110100
11111111101000101111111110011011
11111110110010111111111110000001
00000001110110110000000001011011
00000001001110101111111010001100
00000000111001110000000100010011
00000000011001010000000011011011
11111100011101011111011100000100
11111111100111000000000110101001
11111110111100000000000111110001
11111101011001010000000011001100
11111101100111110000001000001011
11111111110100110000000001010100
00000000101111000000000010000010
11111010001100001111110000111010
00000101110111111111110001011110
00000001100100101111111011001110
11111111010100110000000100010101
00000001011011100000001100111011
11111101110100001111111110011010
11111111010101110000000001101100
11111100101101000000000000000000
11111111100011111111111110011100
00000000110110001111111101110101
11111110100100011111110010001111
00000011000100000000001001101100
00000000001000110000000011000000
00001110010101000000101110110110
00000010010010101111110111111111
11111111100000101111111101100010
11111110111100011111111000000010
00000000010000011111111011110011
11111111000101001111111100010100
00000001001111001111111111100001
00000000100000100000000011110001
00000010011111000000001111110011
11111111010100011111111110111011
11111110111111101111111101011111
11111110000101000000000010100011
11111111000110101111111111100101
00000000001101111111111110100001
11111111101000011111111011010100
00000010100101000000001010010010
11111111100000011111111101100100
11111111110011010000000010000001
11111111011100010000000110111010
00000000001001000000000001000111
00000001100111000000000001000111
00000010011110110000000001011010
00000000001011011111111100010001
00000001001111110000000100110010
11111111111011111111111010000111
00000000011110001111111011111000
11111111010010100000000000001101
00000000001001010000000010000100
00000000010111001111111101010010
11111111100101110000000001000011
11111110101111001111111010111001
11111110111110101111111111111100
11111111101111011111111110010011
11111111100010001111111101100011
00000000000110001111111101001110
00000000010000101111111101100001
00000001011111001111111111001011
11111111011111011111111011000101
11111110110101011111111000011010
11111111100110110000000010001101
00000000111111011111111110110111
11111111101010000000000000000011
11111111110111110000000001110111
11111110111001111111111111010010
00000000001000101111111111000000
11111111000110111111111111001110
11111111110011111111111110011001
00000010011000010000000110100011
00000000111100100000000011010100
11111111001110100000000000011001
00000000001010100000000011011010
11111111001011110000000011110110
11111111010111100000000000010111
00000000010011000000000000011001
11111111111101101111111110001101
00000000010111110000000101111000
00000001000000010000000001110101
00000000110000001111111101101001
11111111101101000000000000000000
00000000110000000000000010010111
00000001000000011111111110001011
00000000010111111111111010001000
11111111111101100000000001110011
00000000010011001111111111100111
11111111010111101111111111101001
11111111001011111111111100001010
00000000001010101111111100100110
11111111001110101111111111100111
00000000111100101111111100101100
00000010011000011111111001011101
11111111110011110000000001100111
11111111000110110000000000110010
00000000001000100000000001000000
11111110111001110000000000101110
11111111110111111111111110001001
11111111101010001111111111111101
00000000111111010000000001001001
11111111100110111111111101110011
11111110110101010000000111100110
11111111011111010000000100111011
00000001011111000000000000110101
00000000010000100000000010011111
00000000000110000000000010110010
11111111100010000000000010011101
11111111101111010000000001101101
11111110111110100000000000000100
11111110101111000000000101000111
11111111100101111111111110111101
00000000010111000000000010101110
00000000001001011111111101111100
11111111010010101111111111110011
00000000011110000000000100001000
11111111111011110000000101111001
00000001001111111111111011001110
00000000001011010000000011101111
00000010011110111111111110100110
00000001100111001111111110111001
00000000001001001111111110111001
11111111011100011111111001000110
11111111110011011111111101111111
11111111100000010000000010011100
00000010100101001111110101101110
11111111101000010000000100101100
00000000001101110000000001011111
11111111000110100000000000011011
11111110000101001111111101011101
11111110111111100000000010100001
11111111010100010000000001000101
00000010011111001111110000001101
00000000100000101111111100001111
00000001001111000000000000011111
11111111000101000000000011101100
00000000010000010000000100001101
11111110111100010000000111111110
11111111100000100000000010011110
00000010010010100000001000000001
00001110010101001111010001001010
00000000001000111111111101000000
00000011000100001111110110010100
11111110100100010000001101110001
00000000110110000000000010001011
11111111100011110000000001100100
11111111100011010000000000000000
00000001001101101111110011011000
00000010110000011111111000100101
00000010001010001111110010110111
00000000001000001111111101011100
11111111111101100000000100100101
00000010010101010000110001111111
11111010011110011111110001101001
00000010010011011111111011010000
11111110110101010000000111111110
00000000011011111111111100100110
00000010001100101111111101000110
00000010111000010000000111011111
00000000001100100000000001001010
11111110001110111111111100011011
11111111000000001111111011111010
00000000001110111111111101011100
00000000011011110000000001100110
00000001010001101111111010101011
11111111010100111111111011111100
11111101110000100000001000111100
00000001000000010000000100001000
11111111110101111111111010101011
00000000101011110000000010111011
11111111101010010000000001001001
11111110001001110000000010100110
00000001110100101111111010111011
00000000001001000000000001011100
11111111110010110000000010110110
11111111110011001111111110011101
00000000110101001111111101010101
11111111110011100000000100010111
11111110111111101111111110110000
00000000011011101111111110001100
00000000101101010000000001111011
00000001010001010000000000011110
11111111010011010000000001110010
00000010001000000000000000110010
00000000101101101111111100000011
00000000011000001111111010000111
11111111000010100000000000000001
00000000101001001111111110110110
11111111010111010000000011111110
00000001010001011111111110011111
11111111110111010000000010011111
11111111100101110000000000101100
00000000001010000000000010110100
00000000010111011111111110101110
00000000100100000000000011110111
11111111100001011111111111100111
00000000000000111111111110111100
00000000010011010000000011101001
00000000001100001111111110110010
11111111111111001111111111110110
00000000001110011111111101111000
00000000011010100000000001100011
00000000011111010000000101011010
00000000001100111111111111101011
11111111000000010000000010101011
11111111000110110000000000010111
11111110010010111111111111101100
11111111001111111111111111001100
00000000110000001111111110000111
11111111111010011111111001101101
11111111011111010000000000000000
11111111111010010000000110010011
00000000110000000000000001111001
11111111001111110000000000110100
11111110010010110000000000010100
11111111000110111111111111101001
11111111000000011111111101010101
00000000001100110000000000010101
00000000011111011111111010100110
00000000011010101111111110011101
00000000001110010000000010001000
11111111111111000000000000001010
00000000001100000000000001001110
00000000010011011111111100010111
00000000000000110000000001000100
11111111100001010000000000011001
00000000100100001111111100001001
00000000010111010000000001010010
00000000001010001111111101001100
11111111100101111111111111010100
11111111110111011111111101100001
00000001010001010000000001100001
11111111010111011111111100000010
00000000101001000000000001001010
11111111000010101111111111111111
00000000011000000000000101111001
00000000101101100000000011111101
00000010001000001111111111001110
11111111010011011111111110001110
00000001010001011111111111100010
00000000101101011111111110000101
00000000011011100000000001110100
11111110111111100000000001010000
11111111110011101111111011101001
00000000110101000000000010101011
11111111110011000000000001100011
11111111110010111111111101001010
00000000001001001111111110100100
00000001110100100000000101000101
11111110001001111111111101011010
11111111101010011111111110110111
00000000101011111111111101000101
11111111110101110000000101010101
00000001000000011111111011111000
11111101110000101111110111000100
11111111010100110000000100000100
00000001010001100000000101010101
00000000011011111111111110011010
00000000001110110000000010100100
11111111000000000000000100000110
11111110001110110000000011100101
00000000001100101111111110110110
00000010111000011111111000100001
00000010001100100000000010111010
00000000011011110000000011011010
11111110110101011111111000000010
00000010010011010000000100110000
11111010011110010000001110010111
00000010010101011111001110000001
11111111111101101111111011011011
00000000001000000000000010100100
00000010001010000000001101001001
00000010110000010000000111011011
00000001001101100000001100101000
00000001000001100000000000000000
11111110111000110000000011010011
00000000000011100000000010011101
00000011010100000000000001111001
00000001011011111111111110100111
11111111011100101111111111111001
11110011101011100000000110111101
00000010000111000000011010110110
11111111000001000000000000111000
00000001001110010000000000011010
00000001101010111111111000101011
11111110011000010000001000001110
11111111101000001111110111110001
00000000000010100000000000000101
11111001101100100000000010110001
00000000010110011111111111101001
11111111110001000000000000100100
11111101100100001111111111100010
11111111001101100000000001110010
11111110111110000000000001001111
11111111100101101111111101000110
11111111010111000000000011101011
11111111101011100000000001100100
00000000011000011111111101111101
00000000001101110000000010000010
00000000001110001111111110011101
11111111110001011111111100100111
00000000001001110000000110100111
00000001010001010000000010111100
00000000000101100000000000001111
00000001001110110000000001101101
00000001000110011111111111000010
11111111000100111111111101110100
11111110111100101111111101011000
11111111011101101111111111001111
11111111110001010000000000100011
00000001110000011111111100010001
11111111110110011111111110011101
00000000001001001111111110111110
11111110110000000000000011011001
11111110110000100000000000110101
00000000100101010000000000101101
00000000100000100000000000101011
00000000000100000000000000111101
00000000000101101111111111110100
00000000100100000000000001110101
00000000101001000000000000001001
11111111100110000000000010111000
11111111110101100000000001011100
11111111011111001111111101110110
11111111111101001111110110010100
00000000101100100000000010010010
00000000011010100000000001010001
11111111101010100000000001010010
11111111111111110000000000100010
00000000111111001111111110100100
11111111101011010000000000010011
00000000000111111111111101000011
11111111011010110000000001100110
00000000101110101111111110101101
00000000011011100000000001101100
11111111110101110000000001011100
00000000100010001111111101110010
11111111111110011111111101101110
11111110100000000000000000000000
11111111111110010000000010010010
00000000100010000000000010001110
11111111110101111111111110100100
00000000011011101111111110010100
00000000101110100000000001010011
11111111011010111111111110011010
00000000000111110000000010111101
11111111101011011111111111101101
00000000111111000000000001011100
11111111111111111111111111011110
11111111101010101111111110101110
00000000011010101111111110101111
00000000101100101111111101101110
11111111111101000000001001101100
11111111011111000000000010001010
11111111110101101111111110100100
11111111100110001111111101001000
00000000101001001111111111110111
00000000100100001111111110001011
00000000000101100000000000001100
00000000000100001111111111000011
00000000100000101111111111010101
00000000100101011111111111010011
11111110110000101111111111001011
11111110110000001111111100100111
00000000001001000000000001000010
11111111110110010000000001100011
00000001110000010000000011101111
11111111110001011111111111011101
11111111011101100000000000110001
11111110111100100000000010101000
11111111000100110000000010001100
00000001000110010000000000111110
00000001001110111111111110010011
00000000000101101111111111110001
00000001010001011111111101000100
00000000001001111111111001011001
11111111110001010000000011011001
00000000001110000000000001100011
00000000001101111111111101111110
00000000011000010000000010000011
11111111101011101111111110011100
11111111010111001111111100010101
11111111100101100000000010111010
11111110111110001111111110110001
11111111001101101111111110001110
11111101100100000000000000011110
11111111110001001111111111011100
00000000010110010000000000010111
11111001101100101111111101001111
00000000000010101111111111111011
11111111101000000000001000001111
11111110011000011111110111110010
00000001101010110000000111010101
00000001001110011111111111100110
11111111000001001111111111001000
00000010000111001111100101001010
11110011101011101111111001000011
11111111011100100000000000000111
00000001011011110000000001011001
00000011010100001111111110000111
00000000000011101111111101100011
11111110111000111111111100101101
11111100000000110000000000000000
11111111111011000000010001101010
00000000001000010000000011001010
11111110100000110000000101101101
00000001110100100000000110001111
00000000010111010000000011000000
00001101101001100000001110111101
00000101011111011111100001110111
00000001101001001111111111101100
11111111011111110000000011001001
11111110001000101111111111001100
00000000111111010000000100101010
11111110111001001111110110000001
11111111100111010000000001111010
11111011101011010000000000001001
00000000001001000000000100101111
00000000101001110000000011001101
00000001011111011111111111111110
00000000110111101111111100011011
00000000000100101111111101100011
00000001001000010000000101011011
00000010000000100000000001111011
11111110101001101111111100100110
11111110101010001111111010001011
11111111011100101111111001011110
00000001011000110000000001100100
11111111101111001111111001011100
11111110110110010000000000001101
11111111111000111111111111000100
00000000000010111111111111100000
00000000000111011111111100110111
11111111100011101111111110100011
11111111010000001111111100010111
11111111101110000000000011101111
11111111111011010000000001001011
00000000010001001111111111000110
00000000111001111111111110101100
00000000110110001111111110011011
00000000000101100000000000011010
00000000111011000000000001011100
00000000001011001111111111011111
11111111011101011111111001101101
00000001100010111111111110001101
00000010010110010000000101110100
11111110111100000000000000000000
00000000001010101111111111101111
00000001110001011111111010001000
11111111101011000000000001101111
00000000101000001111110110011011
11111110100010101111111101000100
00000000010011000000000001110001
00000000001100010000000001110000
11111111010011001111111110001010
11111111010010010000000010101111
11111111001011010000000001110101
00000001010000001111111111101111
00000000000000101111111111100000
11111111010100010000000000111110
00000000011001100000000110001011
11111111101110010000000001000110
11111111100001001111111100001101
11111111110101010000000001101101
11111111100001001111111111011001
11111111000111000000000011101010
00000001000010100000000000000000
11111111000111001111111100010110
11111111100001000000000000100111
11111111110101011111111110010011
11111111100001000000000011110011
11111111101110011111111110111010
00000000011001101111111001110101
11111111010100011111111111000010
00000000000000100000000000100000
00000001010000000000000000010001
11111111001011011111111110001011
11111111010010011111111101010001
11111111010011000000000001110110
00000000001100011111111110010000
00000000010011001111111110001111
11111110100010100000000010111100
00000000101000000000001001100101
11111111101011001111111110010001
00000001110001010000000101111000
00000000001010100000000000010001
11111110111100000000000000000000
00000010010110011111111010001100
00000001100010110000000001110011
11111111011101010000000110010011
00000000001011000000000000100001
00000000111011001111111110100100
00000000000101101111111111100110
00000000110110000000000001100101
00000000111001110000000001010100
00000000010001000000000000111010
11111111111011011111111110110101
11111111101110001111111100010001
11111111010000000000000011101001
11111111100011100000000001011101
00000000000111010000000011001001
00000000000010110000000000100000
11111111111000110000000000111100
11111110110110011111111111110011
11111111101111000000000110100100
00000001011000111111111110011100
11111111011100100000000110100010
11111110101010000000000101110101
11111110101001100000000011011010
00000010000000101111111110000101
00000001001000011111111010100101
00000000000100100000000010011101
00000000110111100000000011100101
00000001011111010000000000000010
00000000101001111111111100110011
00000000001001001111111011010001
11111011101011011111111111110111
11111111100111011111111110000110
11111110111001000000001001111111
00000000111111011111111011010110
11111110001000100000000000110100
11111111011111111111111100110111
00000001101001000000000000010100
00000101011111010000011110001001
00001101101001101111110001000011
00000000010111011111111101000000
00000001110100101111111001110001
11111110100000111111111010010011
00000000001000011111111100110110
11111111111011001111101110010110
00000010100110000000000000000000
00000010000110001111110001001010
00000001110001010000001001101111
11111010110111101111101110100011
00000010101011110000000010001000
11111111010001110000000010011001
11111110111011111111011001001010
00000111010001000000001101100110
00000000011110110000000100111000
00000010100001000000000001110100
00000001010100001111111101110111
11111111100001100000000010010001
11111110101010001111110111101101
11111101001101000000010101000110
00000010111101111111111001010111
00000000111011100000000010101101
00000001001010001111110110111001
00000000010011110000000101000000
11111111011011101111110111101011
00000001001010100000000011100000
11111111001000110000000101100001
11111110110001001111111111111000
00000000111001011111111110101000
11111110010111100000000010110001
11111111000011100000000000001001
11111110000110000000000011010000
11111111011000010000000001100010
11111111101011110000000100011110
00000000111000101111111101011010
11111111001100110000000001111011
00000001011001111111111101001001
11111110011100111111111111101101
00000001100010100000000001011101
11111111101111111111111100110101
00000001000111001111111111110100
00000000111011000000000101101011
00000000001100011111111100110001
00000000010101100000000011001000
00000000101111000000000001001100
11111110110000011111111011100011
00000001101000000000000001111001
11111111011010111111111110000001
00000000011001000000000011110010
00000000100100101111111010001000
11111110111110110000000001100111
00000000000101100000000010111101
11111111111001101111111101001100
11111111100100000000000011110010
11111111110011010000000001111001
00000000101101001111111100100000
00000000001000000000000100101010
00000001101100101111111010010111
11111111001100111111111101101111
00000000111111110000000110101111
11111111101000110000000001001110
11111111101011101111111100100101
11111111101001100000000011011100
00000000110011110000000101001000
11111111110110100000000000100110
00000000100001101111111110101010
11111111110000000000000001101001
11111111110001101111111111111001
11111111100110110000000001110010
11111110111111101111111101110101
00000000111010110000000000000000
11111110111111100000000010001011
11111111100110111111111110001110
11111111110001100000000000000111
11111111110000001111111110010111
00000000100001100000000001010110
11111111110110101111111111011010
00000000110011111111111010111000
11111111101001101111111100100100
11111111101011100000000011011011
11111111101000111111111110110010
00000000111111111111111001010001
11111111001100110000000010010001
00000001101100100000000101101001
00000000001000001111111011010110
00000000101101000000000011100000
11111111110011011111111110000111
11111111100100001111111100001110
11111111111001100000000010110100
00000000000101101111111101000011
11111110111110111111111110011001
00000000100100100000000101111000
00000000011001001111111100001110
11111111011010110000000001111111
00000001101000001111111110000111
11111110110000010000000100011101
00000000101111001111111110110100
00000000010101101111111100111000
00000000001100010000000011001111
00000000111011001111111010010101
00000001000111000000000000001100
11111111101111110000000011001011
00000001100010101111111110100011
11111110011100110000000000010011
00000001011001110000000010110111
11111111001100111111111110000101
00000000111000100000000010100110
11111111101011111111111011100010
11111111011000011111111110011110
11111110000110001111111100110000
11111111000011101111111111110111
11111110010111101111111101001111
00000000111001010000000001011000
11111110110001000000000000001000
11111111001000111111111010011111
00000001001010101111111100100000
11111111011011100000001000010101
00000000010011111111111011000000
00000001001010000000001001000111
00000000111011101111111101010011
00000010111101110000000110101001
11111101001101001111101010111010
11111110101010000000001000010011
11111111100001101111111101101111
00000001010100000000000010001001
00000010100001001111111110001100
00000000011110111111111011001000
00000111010001001111110010011010
11111110111011110000100110110110
11111111010001111111111101100111
00000010101011111111111101111000
