00000000111001110000000000000000
00000100000010000000001100011011
00000100000111000000001011001111
00000010110001110000100001110001
11111111010111011111110101100111
00000111001111111111111100001000
11111110100011100000010000110111
11111111101100001111100111101000
00000011111010000000011101001000
11111100111110011111111000111111
11111111010111101111101011001001
11111111101010000000001010011101
11111110001110001111010100001001
00000000101110100000010100011111
11111011111101011111100010000110
00000010001010101111100011011101
11111100100011101111011001011000
11111000000010001111101101111000
00000101010100001111101001000010
00000100010111010000011010110110
11111110101100111111111011010010
11111111000110000000001001110110
11111100001000111111110011001111
11111111101010001111100000010001
00000011101010001111110011010000
00000001011001000000001001011000
00000110110100101111010110101100
00000010101111100000001100001101
00000010110111001111111101010001
00000111110100101111011100011011
11111101101110111111110101101000
11111000001001010000000001001110
00001000000010110000111101000011
11111100110010100000000101111000
11111101100000010000001001111000
11111001100111000000011000011101
00000010010001011111110001111110
00000101010001110000001001011101
11111001001101011111111111001011
00000010110100111111110011000001
00000000111000000000001010010110
00000000000000100000000101011110
00000010111010011111110101010001
11111111101011110000000011001110
11111110100111111111111100111111
11111001001011100000010000111001
00000101100111111111110011100011
11111111110010100000000100101111
00000100001101010000000001001000
00000000001101111111111000001110
00001010100110001111011000100111
00000001111101110000000001110101
00000010101100101111111000001110
11111101110001011111101101111100
00000001101110100000000111100001
11111110001001011111110010010001
00000011000111010000000000000000
00000010010000011111010001110001
11111110110010010001011001100110
00000000010111011111110101001111
00000001100000001111111100000000
00000011101000100001000001001100
11111110011100100000100001101011
11111111101110010000001101001010
11010010100001000000000000000000
11111111101110011111110010110110
11111110011100101111011110010101
00000011101000101110111110110100
00000001100000000000000100000000
00000000010111010000001010110001
11111110110010011110100110011010
00000010010000010000101110001111
00000011000111010000000000000000
11111110001001010000001101101111
00000001101110101111111000011111
11111101110001010000010010000100
00000010101100100000000111110010
00000001111101111111111110001011
00001010100110000000100111011001
00000000001101110000000111110010
00000100001101011111111110111000
11111111110010101111111011010001
00000101100111110000001100011101
11111001001011101111101111000111
11111110100111110000000011000001
11111111101011111111111100110010
00000010111010010000001010101111
00000000000000101111111010100010
00000000111000001111110101101010
00000010110100110000001100111111
11111001001101010000000000110101
00000101010001111111110110100011
00000010010001010000001110000010
11111001100111001111100111100011
11111101100000011111110110001000
11111100110010101111111010001000
00001000000010111111000010111101
11111000001001011111111110110010
11111101101110110000001010011000
00000111110100100000100011100101
00000010110111000000000010101111
00000010101111101111110011110011
00000110110100100000101001010100
00000001011001001111110110101000
00000011101010000000001100110000
11111111101010000000011111101111
11111100001000110000001100110001
11111111000110001111110110001010
11111110101100110000000100101110
00000100010111011111100101001010
00000101010100000000010110111110
11111000000010000000010010001000
11111100100011100000100110101000
00000010001010100000011100100011
11111011111101010000011101111010
00000000101110101111101011100001
11111110001110000000101011110111
11111111101010001111110101100011
11111111010111100000010100110111
11111100111110010000000111000001
00000011111010001111100010111000
11111111101100000000011000011000
11111110100011101111101111001001
00000111001111110000000011111000
11111111010111010000001010011001
00000010110001111111011110001111
00000100000111001111110100110001
00000100000010001111110011100101
11110110010110110000000000000000
00000011111011110000000010001101
11111010110101100000100010110001
00000000100010101111110010100011
00000000010110010000000101000001
11111111001001101111110100100111
11111101101000000000010110111000
00000010011001100000100010110000
00000000101011000000001010001010
00000000111101111111111010010111
00000011001011011111111100010111
00000010000110011111111111111001
11110101100011000000100110100111
00000010010011101111101110010100
00000000000010111111111001000001
00000001000111011111111011110011
00000011101011010000001100010011
11111010111010001111111000101010
11111111001010001111101010110000
00000100100110111111110100010101
11111010000011101111111100000000
11111101110011001111111000011111
11111111011011111111111000100001
11111100010001100000000010111001
00000001011010100000000101000100
11111110000010110000010000000110
11111101110111101111110011000011
11111111011101010000000010010101
00000011010111111111110001110000
11110110001101101111111001001001
11111101000001101111110110011101
11111110110100010000001110110001
11111101100111110000000100101101
00000001000000101111111110001001
11111111010010100000001101001010
00000100110101011111101100001110
11111111101011101111111111101110
00000010011011100000000011010011
11111100010101011111110111011101
00000001000110111111111011010010
00000000010100100000000100001011
00000001001110100000000010000001
00000001110011111111110101001110
00000010010011010000001100000111
00000001110011100000001010000110
00000000100101011111111011100100
11111011101001110000000100110000
11111011010111000000010000101000
11111110000010011111111010111001
11111111101100111111111111110111
00000001101011010000011101011101
11111111111110101111111101011111
00000100011110010000010100001000
00000001011001011111111000101111
00000000001011000000001100111010
00000001011100010000000100101011
11111101011100010000000100000111
00000100100001101111111111000010
00000100111011100000010100001101
11111101000001101111101111011011
11111100000100010000001011010011
00000100100101011111100001000111
00000011111101100000001101000111
00000011100110111111110110111011
00000000111001000000000000000000
00000011100110110000001001000101
00000011111101101111110010111001
00000100100101010000011110111001
11111100000100011111110100101101
11111101000001100000010000100101
00000100111011101111101011110011
00000100100001100000000000111110
11111101011100011111111011111001
00000001011100011111111011010101
00000000001011001111110011000110
00000001011001010000000111010001
00000100011110011111101011111000
11111111111110100000000010100001
00000001101011011111100010100011
11111111101100110000000000001001
11111110000010010000000101000111
11111011010111001111101111011000
11111011101001111111111011010000
00000000100101010000000100011100
00000001110011101111110101111010
00000010010011011111110011111001
00000001110011110000001010110010
00000001001110101111111101111111
00000000010100101111111011110101
00000001000110110000000100101110
11111100010101010000001000100011
00000010011011101111111100101101
11111111101011100000000000010010
00000100110101010000010011110010
11111111010010101111110010110110
00000001000000100000000001110111
11111101100111111111111011010011
11111110110100011111110001001111
11111101000001100000001001100011
11110110001101100000000110110111
00000011010111110000001110010000
11111111011101011111111101101011
11111101110111100000001100111101
11111110000010111111101111111010
00000001011010101111111010111100
11111100010001101111111101000111
11111111011011110000000111011111
11111101110011000000000111100001
11111010000011100000000100000000
00000100100110110000001011101011
11111111001010000000010101010000
11111010111010000000000111010110
00000011101011011111110011101101
00000001000111010000000100001101
00000000000010110000000110111111
00000010010011100000010001101100
11110101100011001111011001011001
00000010000110010000000000000111
00000011001011010000000011101001
00000000111101110000000101101001
00000000101011001111110101110110
00000010011001101111011101010000
11111101101000001111101001001000
11111111001001100000001011011001
00000000010110011111111010111111
00000000100010100000001101011101
11111010110101101111011101001111
00000011111011111111111101110011
00000001001101000000000000000000
00000000000111111111110110111001
11111111000011111111111011010000
00000000010001100000001000000100
00000000011010110000010100000011
11111111001111001111101010110110
11111010110101101111111101111100
11111001111100000000000010000101
00000000011111111111111001001110
00000001001000011111111111000100
11111100110010111111101000111101
00000001011100001111111101101101
00000100101010000000100000110100
00000001100110011111101100011100
00000011101100111111101111010111
00000001010101000000000110001110
11111111010011110000000011000000
00000101000010011111110101101010
00000100000001101111110101100111
11111111001101111111110000001111
11111100000110101111110111110111
11111101110100010000000110000110
11111111100110111111111001000110
11111100000101100000001111001110
00000010000000101111111100011001
00000001101111001111110101111001
00000001001011111111101100100000
11111101001001100000000000100111
00000000100110110000000010011101
00000010110100000000000110011000
11110111001111000000000000101000
11111110010011101111111110000100
11111000000110011111100010011111
11111101110000100000000000111100
11111101010100010000000101111101
11111110001111011111110110100001
11111101000100010000000110010100
11111111011101010000001011011100
00000000010010000000000011001110
00000000011001101111110100111111
11111110101011110000000010000011
11111101100011100000000111000011
00000000011000000000001000100000
11111111000010011111101000000110
00000000100011111111110110111100
00000010000001101111111100011000
00000011001001100000001000011000
00000000110001110000000001100100
11111101110110110000001000100011
11111110001110001111111010111110
00000000001111101111011101111011
11111110101101010000000001101011
11111111011111001111111010111000
00000010101101001111110100001000
11111110101111101111111111101001
11111101010000111111111000100001
00000011000100111111110001110011
00001010110000001111101011011110
11111110101000100000001110111111
11111110010000110000000001011100
11111110001110010000010011101011
11111101110011010000011101000111
11111010010101011111101111000111
00000010001000110000001011101011
00001010110101100000000000000000
00000010001000111111110100010101
11111010010101010000010000111001
11111101110011011111100010111001
11111110001110011111101100010101
11111110010000111111111110100100
11111110101000101111110001000001
00001010110000000000010100100010
00000011000100110000001110001101
11111101010000110000000111011111
11111110101111100000000000010111
00000010101101000000001011111000
11111111011111000000000101001000
11111110101101011111111110010101
00000000001111100000100010000101
11111110001110000000000101000010
11111101110110111111110111011101
00000000110001111111111110011100
00000011001001101111110111101000
00000010000001100000000011101000
00000000100011110000001001000100
11111111000010010000010111111010
00000000011000001111110111100000
11111101100011101111111000111101
11111110101011111111111101111101
00000000011001100000001011000001
00000000010010001111111100110010
11111111011101011111110100100100
11111101000100011111111001101100
11111110001111010000001001011111
11111101010100011111111010000011
11111101110000101111111111000100
11111000000110010000011101100001
11111110010011100000000001111100
11110111001111001111111111011000
00000010110100001111111001101000
00000000100110111111111101100011
11111101001001101111111111011001
00000001001011110000010011100000
00000001101111000000001010000111
00000010000000100000000011100111
11111100000101101111110000110010
11111111100110110000000110111010
11111101110100011111111001111010
11111100000110100000001000001001
11111111001101110000001111110001
00000100000001100000001010011001
00000101000010010000001010010110
11111111010011111111111101000000
00000001010101001111111001110010
00000011101100110000010000101001
00000001100110010000010011100100
00000100101010001111011111001100
00000001011100000000000010010011
11111100110010110000010111000011
00000001001000010000000000111100
00000000011111110000000110110010
11111001111100001111111101111011
11111010110101100000000010000100
11111111001111000000010101001010
00000000011010111111101011111101
00000000010001101111110111111100
11111111000011110000000100110000
00000000000111110000001001000111
11111011100101000000000000000000
00000010111100011111111100100011
00000100001000100000001100100111
11111001111011100000001111111010
00000000000100101111100101111101
00000001010100001111110111000110
11111110110011100000001001100110
00000000000000010000001100100011
00001001011011100000011011000100
11111100000000100000010110110011
11111111001110101111111010100001
11111111101111011111010100001001
00000001110010001111110110000100
11111110011000011111111111110111
00000011100011011111111011100110
11111101101011111111110110001110
11111110110111101111111011101101
11111100001001101111100110110000
11111000010010010000001011010110
00000000101010110000000010011110
11111111101001100000001010001001
00000010101110001111110110001111
11111010101010110000001010100101
11111011111101111111110010100110
00000001001010110000000001111111
11111001110001100000010101010111
11111111010010000000000101110010
00000010110000101111111001111110
11111011111101000000000101111010
00000000011011111111101001001001
00000000001000010000000001010100
11111101110000101111111011101111
00000000101111010000000010101110
11111101111111100000000111011001
00000010111011011111110000110111
11111110100001111111101000110110
00000001111000110000000011101101
00000001001010001111111011111101
11111111011111110000001001011001
00000000011101000000000001000010
11111110010010100000000111111010
11111101001110101111111000101100
11111111011100000000000011100011
00000000111001100000000001010111
11111011101100110000000100000111
11111100110111000000000011010110
00000001000011110000000111000011
00000000010111001111111001111011
00000000110010011111101100111111
11111101000110010000000110001000
11111111100110001111110011000111
00000001111011010000000010000111
11111110011011000000000101001000
00000011111111011111101111000100
11111111100100101111111011111100
00000100010101111111100110010011
11111100001000000000001010011111
11111001010100111111011111011001
11111001011000001111101010000000
11111010110110000000000101010111
00000101111100110000000110010100
00001111010000100000000101110111
11111101101111001111111101111010
00000000100100010000001000100011
11111111100100100000000000000000
00000000100100011111110111011101
11111101101111000000000010000110
00001111010000101111111010001001
00000101111100111111111001101100
11111010110110001111111010101001
11111001011000000000010110000000
11111001010100110000100000100111
11111100001000001111110101100001
00000100010101110000011001101101
11111111100100100000000100000100
00000011111111010000010000111100
11111110011011001111111010111000
00000001111011011111111101111001
11111111100110000000001100111001
11111101000110011111111001111000
00000000110010010000010011000001
00000000010111000000000110000101
00000001000011111111111000111101
11111100110111001111111100101010
11111011101100111111111011111001
00000000111001101111111110101001
11111111011100001111111100011101
11111101001110100000000111010100
11111110010010101111111000000110
00000000011101001111111110111110
11111111011111111111110110100111
00000001001010000000000100000011
00000001111000111111111100010011
11111110100001110000010111001010
00000010111011010000001111001001
11111101111111101111111000100111
00000000101111011111111101010010
11111101110000100000000100010001
00000000001000011111111110101100
00000000011011110000010110110111
11111011111101001111111010000110
00000010110000100000000110000010
11111111010010001111111010001110
11111001110001101111101010101001
00000001001010111111111110000001
11111011111101110000001101011010
11111010101010111111110101011011
00000010101110000000001001110001
11111111101001101111110101110111
00000000101010111111111101100010
11111000010010011111110100101010
11111100001001100000011001010000
11111110110111100000000100010011
11111101101011110000001001110010
00000011100011010000000100011010
11111110011000010000000000001001
00000001110010000000001001111100
11111111101111010000101011110111
11111111001110100000000101011111
11111100000000101111101001001101
00001001011011101111100100111100
00000000000000011111110011011101
11111110110011101111110110011010
00000001010100000000001000111010
00000000000100100000011010000011
11111001111011101111110000000110
00000100001000101111110011011001
00000010111100010000000011011101
00000000000000000000000000000000
00000000000000000000000000000000
00000000000000000000000000000000
00000000000000000000000000000000
00000000000000000000000000000000
00000000000000000000000000000000
00000000000000000000000000000000
00000000000000000000000000000000
00000000000000000000000000000000
00000000000000000000000000000000
00000000000000000000000000000000
00000000000000000000000000000000
00000000000000000000000000000000
00000000000000000000000000000000
00000000000000000000000000000000
00000000000000000000000000000000
00000000000000000000000000000000
00000000000000000000000000000000
00000000000000000000000000000000
00000000000000000000000000000000
00000000000000000000000000000000
00000000000000000000000000000000
00000000000000000000000000000000
00000000000000000000000000000000
00000000000000000000000000000000
00000000000000000000000000000000
00000000000000000000000000000000
00000000000000000000000000000000
00000000000000000000000000000000
00000000000000000000000000000000
00000000000000000000000000000000
00000000000000000000000000000000
00000000000000000000000000000000
00000000000000000000000000000000
00000000000000000000000000000000
00000000000000000000000000000000
00000000000000000000000000000000
00000000000000000000000000000000
00000000000000000000000000000000
00000000000000000000000000000000
00000000000000000000000000000000
00000000000000000000000000000000
00000000000000000000000000000000
00000000000000000000000000000000
00000000000000000000000000000000
00000000000000000000000000000000
00000000000000000000000000000000
00000000000000000000000000000000
00000000000000000000000000000000
00000000000000000000000000000000
00000000000000000000000000000000
00000000000000000000000000000000
00000000000000000000000000000000
00000000000000000000000000000000
00000000000000000000000000000000
00000000000000000000000000000000
00000000000000000000000000000000
00000000000000000000000000000000
00000000000000000000000000000000
00000000000000000000000000000000
00000000000000000000000000000000
00000000000000000000000000000000
00000000000000000000000000000000
00000000000000000000000000000000
00000000000000000000000000000000
00000000000000000000000000000000
00000000000000000000000000000000
00000000000000000000000000000000
00000000000000000000000000000000
00000000000000000000000000000000
00000000000000000000000000000000
00000000000000000000000000000000
00000000000000000000000000000000
00000000000000000000000000000000
00000000000000000000000000000000
00000000000000000000000000000000
00000000000000000000000000000000
00000000000000000000000000000000
00000000000000000000000000000000
00000000000000000000000000000000
00000000000000000000000000000000
00000000000000000000000000000000
00000000000000000000000000000000
00000000000000000000000000000000
00000000000000000000000000000000
00000000000000000000000000000000
00000000000000000000000000000000
00000000000000000000000000000000
00000000000000000000000000000000
00000000000000000000000000000000
00000000000000000000000000000000
00000000000000000000000000000000
00000000000000000000000000000000
00000000000000000000000000000000
00000000000000000000000000000000
00000000000000000000000000000000
00000000000000000000000000000000
00000000000000000000000000000000
00000000000000000000000000000000
00000000000000000000000000000000
00000000000000000000000000000000
00000000000000000000000000000000
00000000000000000000000000000000
00000000000000000000000000000000
00000000000000000000000000000000
00000000000000000000000000000000
00000000000000000000000000000000
00000000000000000000000000000000
00000000000000000000000000000000
00000000000000000000000000000000
00000000000000000000000000000000
00000000000000000000000000000000
00000000000000000000000000000000
00000000000000000000000000000000
00000000000000000000000000000000
00000000000000000000000000000000
00000000000000000000000000000000
00000000000000000000000000000000
00000000000000000000000000000000
00000000000000000000000000000000
00000000000000000000000000000000
00000000000000000000000000000000
00000000000000000000000000000000
00000000000000000000000000000000
00000000000000000000000000000000
00000000000000000000000000000000
00000000000000000000000000000000
00000000000000000000000000000000
00000000000000000000000000000000
00000000000000000000000000000000
00000000000000000000000000000000
00000000000000000000000000000000
00000000000000000000000000000000
00000000000000000000000000000000
00000000000000000000000000000000
00000000000000000000000000000000
00000000000000000000000000000000
00000000000000000000000000000000
00000000000000000000000000000000
00000000000000000000000000000000
00000000000000000000000000000000
00000000000000000000000000000000
00000000000000000000000000000000
00000000000000000000000000000000
00000000000000000000000000000000
00000000000000000000000000000000
00000000000000000000000000000000
00000000000000000000000000000000
00000000000000000000000000000000
00000000000000000000000000000000
00000000000000000000000000000000
00000000000000000000000000000000
00000000000000000000000000000000
00000000000000000000000000000000
00000000000000000000000000000000
00000000000000000000000000000000
00000000000000000000000000000000
00000000000000000000000000000000
00000000000000000000000000000000
00000000000000000000000000000000
00000000000000000000000000000000
00000000000000000000000000000000
00000000000000000000000000000000
00000000000000000000000000000000
00000000000000000000000000000000
00000000000000000000000000000000
00000000000000000000000000000000
00000000000000000000000000000000
00000000000000000000000000000000
00000000000000000000000000000000
00000000000000000000000000000000
00000000000000000000000000000000
00000000000000000000000000000000
00000000000000000000000000000000
00000000000000000000000000000000
00000000000000000000000000000000
00000000000000000000000000000000
00000000000000000000000000000000
00000000000000000000000000000000
00000000000000000000000000000000
00000000000000000000000000000000
00000000000000000000000000000000
00000000000000000000000000000000
00000000000000000000000000000000
00000000000000000000000000000000
00000000000000000000000000000000
00000000000000000000000000000000
00000000000000000000000000000000
00000000000000000000000000000000
00000000000000000000000000000000
00000000000000000000000000000000
00000000000000000000000000000000
00000000000000000000000000000000
00000000000000000000000000000000
00000000000000000000000000000000
00000000000000000000000000000000
00000000000000000000000000000000
00000000000000000000000000000000
00000000000000000000000000000000
00000000000000000000000000000000
00000000000000000000000000000000
00000000000000000000000000000000
00000000000000000000000000000000
00000000000000000000000000000000
00000000000000000000000000000000
00000000000000000000000000000000
00000000000000000000000000000000
00000000000000000000000000000000
00000000000000000000000000000000
00000000000000000000000000000000
00000000000000000000000000000000
00000000000000000000000000000000
00000000000000000000000000000000
00000000000000000000000000000000
00000000000000000000000000000000
00000000000000000000000000000000
00000000000000000000000000000000
00000000000000000000000000000000
00000000000000000000000000000000
00000000000000000000000000000000
00000000000000000000000000000000
00000000000000000000000000000000
00000000000000000000000000000000
00000000000000000000000000000000
00000000000000000000000000000000
00000000000000000000000000000000
00000000000000000000000000000000
00000000000000000000000000000000
00000000000000000000000000000000
00000000000000000000000000000000
00000000000000000000000000000000
00000000000000000000000000000000
00000000000000000000000000000000
00000000000000000000000000000000
00000000000000000000000000000000
00000000000000000000000000000000
00000000000000000000000000000000
00000000000000000000000000000000
00000000000000000000000000000000
00000000000000000000000000000000
00000000000000000000000000000000
00000000000000000000000000000000
00000000000000000000000000000000
00000000000000000000000000000000
00000000000000000000000000000000
00000000000000000000000000000000
00000000000000000000000000000000
00000000000000000000000000000000
00000000000000000000000000000000
00000000000000000000000000000000
00000000000000000000000000000000
00000000000000000000000000000000
00000000000000000000000000000000
00000000000000000000000000000000
00000000000000000000000000000000
00000000000000000000000000000000
00000000000000000000000000000000
00000000000000000000000000000000
00000000000000000000000000000000
00000000000000000000000000000000
00000000000000000000000000000000
00000000000000000000000000000000
00000000000000000000000000000000
00000000000000000000000000000000
00000000000000000000000000000000
00000000000000000000000000000000
00000000000000000000000000000000
00000000000000000000000000000000
00000000000000000000000000000000
00000000000000000000000000000000
00000000000000000000000000000000
00000000000000000000000000000000
00000000000000000000000000000000
00000000000000000000000000000000
00000000000000000000000000000000
00000000000000000000000000000000
00000000000000000000000000000000
00000000000000000000000000000000
00000000000000000000000000000000
00000000000000000000000000000000
00000000000000000000000000000000
00000000000000000000000000000000
00000000000000000000000000000000
00000000000000000000000000000000
00000000000000000000000000000000
00000000000000000000000000000000
00000000000000000000000000000000
00000000000000000000000000000000
00000000000000000000000000000000
00000000000000000000000000000000
00000000000000000000000000000000
00000000000000000000000000000000
00000000000000000000000000000000
00000000000000000000000000000000
00000000000000000000000000000000
00000000000000000000000000000000
00000000000000000000000000000000
00000000000000000000000000000000
00000000000000000000000000000000
00000000000000000000000000000000
00000000000000000000000000000000
00000000000000000000000000000000
00000000000000000000000000000000
00000000000000000000000000000000
00000000000000000000000000000000
00000000000000000000000000000000
00000000000000000000000000000000
00000000000000000000000000000000
00000000000000000000000000000000
00000000000000000000000000000000
00000000000000000000000000000000
00000000000000000000000000000000
00000000000000000000000000000000
00000000000000000000000000000000
00000000000000000000000000000000
00000000000000000000000000000000
00000000000000000000000000000000
00000000000000000000000000000000
00000000000000000000000000000000
00000000000000000000000000000000
00000000000000000000000000000000
00000000000000000000000000000000
00000000000000000000000000000000
00000000000000000000000000000000
00000000000000000000000000000000
00000000000000000000000000000000
00000000000000000000000000000000
00000000000000000000000000000000
00000000000000000000000000000000
00000000000000000000000000000000
00000000000000000000000000000000
00000000000000000000000000000000
00000000000000000000000000000000
00000000000000000000000000000000
00000000000000000000000000000000
00000000000000000000000000000000
00000000000000000000000000000000
00000000000000000000000000000000
00000000000000000000000000000000
00000000000000000000000000000000
00000000000000000000000000000000
00000000000000000000000000000000
00000000000000000000000000000000
00000000000000000000000000000000
00000000000000000000000000000000
00000000000000000000000000000000
00000000000000000000000000000000
00000000000000000000000000000000
00000000000000000000000000000000
00000000000000000000000000000000
00000000000000000000000000000000
00000000000000000000000000000000
00000000000000000000000000000000
00000000000000000000000000000000
00000000000000000000000000000000
00000000000000000000000000000000
00000000000000000000000000000000
00000000000000000000000000000000
00000000000000000000000000000000
00000000000000000000000000000000
00000000000000000000000000000000
00000000000000000000000000000000
00000000000000000000000000000000
00000000000000000000000000000000
00000000000000000000000000000000
00000000000000000000000000000000
00000000000000000000000000000000
00000000000000000000000000000000
00000000000000000000000000000000
00000000000000000000000000000000
00000000000000000000000000000000
00000000000000000000000000000000
00000000000000000000000000000000
00000000000000000000000000000000
00000000000000000000000000000000
00000000000000000000000000000000
00000000000000000000000000000000
00000000000000000000000000000000
00000000000000000000000000000000
00000000000000000000000000000000
00000000000000000000000000000000
00000000000000000000000000000000
00000000000000000000000000000000
00000000000000000000000000000000
00000000000000000000000000000000
00000000000000000000000000000000
00000000000000000000000000000000
00000000000000000000000000000000
00000000000000000000000000000000
00000000000000000000000000000000
00000000000000000000000000000000
00000000000000000000000000000000
00000000000000000000000000000000
00000000000000000000000000000000
00000000000000000000000000000000
00000000000000000000000000000000
00000000000000000000000000000000
00000000000000000000000000000000
00000000000000000000000000000000
00000000000000000000000000000000
00000000000000000000000000000000
00000000000000000000000000000000
00000000000000000000000000000000
00000000000000000000000000000000
00000000000000000000000000000000
00000000000000000000000000000000
00000000000000000000000000000000
00000000000000000000000000000000
00000000000000000000000000000000
00000000000000000000000000000000
00000000000000000000000000000000
00000000000000000000000000000000
00000000000000000000000000000000
00000000000000000000000000000000
00000000000000000000000000000000
00000000000000000000000000000000
00000000000000000000000000000000
00000000000000000000000000000000
00000000000000000000000000000000
00000000000000000000000000000000
00000000000000000000000000000000
00000000000000000000000000000000
00000000000000000000000000000000
00000000000000000000000000000000
00000000000000000000000000000000
00000000000000000000000000000000
00000000000000000000000000000000
00000000000000000000000000000000
00000000000000000000000000000000
00000000000000000000000000000000
00000000000000000000000000000000
00000000000000000000000000000000
00000000000000000000000000000000
00000000000000000000000000000000
00000000000000000000000000000000
00000000000000000000000000000000
00000000000000000000000000000000
00000000000000000000000000000000
00000000000000000000000000000000
00000000000000000000000000000000
00000000000000000000000000000000
00000000000000000000000000000000
00000000000000000000000000000000
00000000000000000000000000000000
00000000000000000000000000000000
00000000000000000000000000000000
00000000000000000000000000000000
00000000000000000000000000000000
00000000000000000000000000000000
00000000000000000000000000000000
00000000000000000000000000000000
00000000000000000000000000000000
00000000000000000000000000000000
00000000000000000000000000000000
00000000000000000000000000000000
00000000000000000000000000000000
00000000000000000000000000000000
00000000000000000000000000000000
00000000000000000000000000000000
00000000000000000000000000000000
00000000000000000000000000000000
00000000000000000000000000000000
00000000000000000000000000000000
00000000000000000000000000000000
00000000000000000000000000000000
00000000000000000000000000000000
00000000000000000000000000000000
00000000000000000000000000000000
00000000000000000000000000000000
00000000000000000000000000000000
00000000000000000000000000000000
00000000000000000000000000000000
00000000000000000000000000000000
00000000000000000000000000000000
00000000000000000000000000000000
00000000000000000000000000000000
00000000000000000000000000000000
00000000000000000000000000000000
00000000000000000000000000000000
00000000000000000000000000000000
00000000000000000000000000000000
00000000000000000000000000000000
00000000000000000000000000000000
00000000000000000000000000000000
00000000000000000000000000000000
00000000000000000000000000000000
00000000000000000000000000000000
00000000000000000000000000000000
00000000000000000000000000000000
00000000000000000000000000000000
00000000000000000000000000000000
00000000000000000000000000000000
00000000000000000000000000000000
00000000000000000000000000000000
00000000000000000000000000000000
00000000000000000000000000000000
00000000000000000000000000000000
00000000000000000000000000000000
00000000000000000000000000000000
00000000000000000000000000000000
00000000000000000000000000000000
00000000000000000000000000000000
00000000000000000000000000000000
00000000000000000000000000000000
00000000000000000000000000000000
00000000000000000000000000000000
00000000000000000000000000000000
00000000000000000000000000000000
00000000000000000000000000000000
00000000000000000000000000000000
00000000000000000000000000000000
00000000000000000000000000000000
11111110100010110000000000000000
11111111100011101111111001111010
00000011010010111111110001101100
00000010100100011111110001111100
00000100011101101111110101000001
00000001000001000000000100111101
00000100101001010000010000010010
11111100101001011111111100010010
00000010111000000000000101111110
11111000001000111111101100011011
00000000001010100000000011100000
11111011000011101111111001011010
00000000011100111111100110101110
11111101011000101111110001010010
00000000101111111111111000000111
11111101111010111111110100101111
11111110111010111111110101001001
11111001100000001111110100100000
00000101100010010000010010000011
00001001000100100000100101110101
11111101010100011111110000000101
00000010110011001111111000011011
00000100010111110000000011110100
11111010100110111111110001101001
11110101110011010000010111001100
11111110000000000000001001011100
00000111100010110000111100000001
00000001010101010000001100100010
00000011001001001111110010111100
00000011101111001111110100011100
11111110100001011111111111111001
00000001001001010000010100110010
11111101100111100000111110000100
11111101111100010000000110100101
00000000010101010000001001100111
11111100101101111111111010001001
00000000001100001111110100000101
00000000100001101111111011100101
11111010111001110000101110010100
11111111111011000000001111110100
00000111001101001111111101100011
00000011000010001111110101001010
11111110010000011111111000000000
11111110010001000000000001110101
11111110100101101111111000000101
11111110011100001111100110011010
00000000011010111111111000101111
00000001000010010000001110001111
11111000101111111111111110011110
00000000100101100000001100000111
00000000011110101111111010111110
00000000100010111111101101010001
11111111001011000000000001011010
00000011011010110000001011101101
11111110111001100000000011111110
11111110101101000000000101100100
00000111001011010000000110111111
00000000100000001111111111000100
00000000111100001111111110111111
00000001101100101111111011010001
00000010010100011111111110011111
00000000111101011111111101101110
11111111111100011111111010000100
00000000100000000000000010010001
11111110111110100000000000000000
00000000100000001111111101101111
11111111111100010000000101111100
00000000111101010000000010010010
00000010010100010000000001100001
00000001101100100000000100101111
00000000111100000000000001000001
00000000100000000000000000111100
00000111001011011111111001000001
11111110101101001111111010011100
11111110111001101111111100000010
00000011011010111111110100010011
11111111001011001111111110100110
00000000100010110000010010101111
00000000011110100000000101000010
00000000100101101111110011111001
11111000101111110000000001100010
00000001000010011111110001110001
00000000011010110000000111010001
11111110011100000000011001100110
11111110100101100000000111111011
11111110010001001111111110001011
11111110010000010000001000000000
00000011000010000000001010110110
00000111001101000000000010011101
11111111111011001111110000001100
11111010111001111111010001101100
00000000100001100000000100011011
00000000001100000000001011111011
11111100101101110000000101110111
00000000010101011111110110011001
11111101111100011111111001011011
11111101100111101111000001111100
00000001001001011111101011001110
11111110100001010000000000000111
00000011101111000000001011100100
00000011001001000000001101000100
00000001010101011111110011011110
00000111100010111111000011111111
11111110000000001111110110100100
11110101110011011111101000110100
11111010100110110000001110010111
00000100010111111111111100001100
00000010110011000000000111100101
11111101010100010000001111111011
00001001000100101111011010001011
00000101100010011111101101111101
11111001100000000000001011100000
11111110111010110000001010110111
11111101111010110000001011010001
00000000101111110000000111111001
11111101011000100000001110101110
00000000011100110000011001010010
11111011000011100000000110100110
00000000001010101111111100100000
11111000001000110000010011100101
00000010111000001111111010000010
11111100101001010000000011101110
00000100101001011111101111101110
00000001000001001111111011000011
00000100011101100000001010111111
00000010100100010000001110000100
00000011010010110000001110010100
11111111100011100000000110000110
00000001011101000000000000000000
00000011111000100000011010000111
00000001101001010000000000111111
00000110000110101111100001001011
00000110010110111111101011011101
00000011101010110000011010001000
11111111010100010000001111011010
00000110001010010000011000101100
11111111100101001111110101001100
00000011110101111111110000011001
00000100001011111111110100101101
11111101110011101111101101100001
11111110110110010000001010100011
11111111101010010000011000000101
11111011100010000000000111110001
00000101110110001111100100011110
00000000111011101111111101010111
00000010110110110000010001000001
11111110001101000000001010000101
11111011111000001111111111100111
11110101010111000000010010111011
11111101100011011111101011001000
11111010011110011111100000001101
00000000010101111111110010101101
00000000111100111111110011111001
00000001101010110000001101010100
00000111011110011111111000100101
11111111000011010000000000010011
00001000000101101111111010111101
11111111111101000000000001100011
00000000010001000000001100010010
00000010101101100000000000000000
00000000111111010000001110001001
00000011111011010000001010110100
11111111011100010000010011010001
11111101110101101111100101000111
00000000000010001111111110010110
11111110110110000000000110000100
11110110101001000000000010100011
11111101000101001111101111011101
11111100111101100000000111010101
00000000100001010000001010111101
00000000000001000000010000011011
00000001111011100000001000101100
00000010110100010000000011010001
11111111100101111111111101000001
00000000001010100000001001110110
11111110100101011111111000001010
11111111001101001111110111011101
11111111110101000000000110101000
00000001100110001111111110101100
11111110111010110000001100110011
11111110111001111111111000000000
00000000010100001111111011100101
00000101001010001111110000100010
11111111010000101111111111000110
00000010101001001111111000011001
00000000101000000000000000001100
00000000110101101111111100011011
00000001011001011111111110011101
00000010011001101111110101000101
11111100111001111111111111000110
11110111101001101111111111000011
00000000110100111111111110001101
11111110100000010000000000000000
00000000110100110000000001110011
11110111101001100000000000111101
11111100111001110000000000111010
00000010011001100000001010111011
00000001011001010000000001100011
00000000110101100000000011100101
00000000101000001111111111110100
00000010101001000000000111100111
11111111010000100000000000111010
00000101001010000000001111011110
00000000010100000000000100011011
11111110111001110000001000000000
11111110111010111111110011001101
00000001100110000000000001010100
11111111110101001111111001011000
11111111001101000000001000100011
11111110100101010000000111110110
00000000001010101111110110001010
11111111100101110000000010111111
00000010110100011111111100101111
00000001111011101111110111010100
00000000000001001111101111100101
00000000100001011111110101000011
11111100111101101111111000101011
11111101000101000000010000100011
11110110101001001111111101011101
11111110110110001111111001111100
00000000000010000000000001101010
11111101110101100000011010111001
11111111011100011111101100101111
00000011111011011111110101001100
00000000111111011111110001110111
00000010101101100000000000000000
00000000010001001111110011101110
11111111111101001111111110011101
00001000000101100000000101000011
11111111000011011111111111101101
00000111011110010000000111011011
00000001101010111111110010101100
00000000111100110000001100000111
00000000010101110000001101010011
11111010011110010000011111110011
11111101100011010000010100111000
11110101010111001111101101000101
11111011111000000000000000011001
11111110001101001111110101111011
00000010110110111111101110111111
00000000111011100000000010101001
00000101110110000000011011100010
11111011100010001111111000001111
11111111101010011111100111111011
11111110110110011111110101011101
11111101110011100000010010011111
00000100001011110000001011010011
00000011110101110000001111100111
11111111100101000000001010110100
00000110001010011111100111010100
11111111010100011111110000100110
00000011101010111111100101111000
00000110010110110000010100100011
00000110000110100000011110110101
00000001101001011111111111000001
00000011111000101111100101111001
00000001001011110000000000000000
00000011101000110000000111000001
11111000111110101111111010101101
11111100010000111111111000010101
00000110000100101111111000011110
11111101101001001111110111101000
00000000100111010000000000000010
00000010001011011111101010000010
11111101000001000000001000110111
00000100011001110000000000110110
11111100000010000000001111101000
11111111011011001111111110010011
11111010111110001111111101100100
11111011101001111111010010001101
11111010001100101111111001011010
11111110100010110000000010011000
00000001110001010000000011000010
00000001011001011111111101000001
11111101101001110000000100111010
00000000011010101111101010101011
00000001001111100000010100000010
11111110010011011111111110001101
00000010110101001111111110101011
00000011010001000000011101000001
00000001100000111111111001001101
11111011110111111111111000110111
11111111101001010000000000110001
11111010110110010000000010000000
11111110000000001111110100011001
11111001110010000000000001000101
00000011101111001111110110011100
11111110000010000000001100001101
11111111101101001111100111010100
00000000100000101111111111111101
11111010100001111111110110101011
00000101001010011111111111000011
11111110110001001111111100000101
00000000111001100000000011000100
11111111001100110000000110111101
00000010000100101111111000010001
11111110001100000000000010011011
11111100111100011111111001110001
11111110110011110000000011010111
00000010100111010000000100100111
00000000111001100000000001111101
11111110001000011111110100110101
00000010100101110000000001001000
00000001110001011111110000001110
00000010110000011111110011000010
11111101101010001111111100010010
11111110100011010000011011110011
11111110011110101111111000100110
00000000011011000000000000000111
11111110110100011111111110111100
00000000011000110000000111000111
00000010111101001111111010001001
11111110111111011111110011101010
11111111001001000000000001100001
11111101111101100000001111011100
11111111101001011111111000100110
00000000101111101111110111100110
00000001100100000000000000101010
11111100100010111111111111000010
00000000011011101111111101100000
00000001010111010000000000000000
00000000011011100000000010100000
11111100100010110000000000111110
00000001100100001111111111010110
00000000101111100000001000011010
11111111101001010000000111011010
11111101111101101111110000100100
11111111001001001111111110011111
11111110111111010000001100010110
00000010111101000000000101110111
00000000011000111111111000111001
11111110110100010000000001000100
00000000011011001111111111111001
11111110011110100000000111011010
11111110100011011111100100001101
11111101101010000000000011101110
00000010110000010000001100111110
00000001110001010000001111110010
00000010100101111111111110111000
11111110001000010000001011001011
00000000111001101111111110000011
00000010100111011111111011011001
11111110110011111111111100101001
11111100111100010000000110001111
11111110001100001111111101100101
00000010000100100000000111101111
11111111001100111111111001000011
00000000111001101111111100111100
11111110110001000000000011111011
00000101001010010000000000111101
11111010100001110000001001010101
00000000100000100000000000000011
11111111101101000000011000101100
11111110000010001111110011110011
00000011101111000000001001100100
11111001110010001111111110111011
11111110000000000000001011100111
11111010110110011111111110000000
11111111101001011111111111001111
11111011110111110000000111001001
00000001100000110000000110110011
00000011010001001111100010111111
00000010110101000000000001010101
11111110010011010000000001110011
00000001001111101111101011111110
00000000011010100000010101010101
11111101101001111111111011000110
00000001011001010000000010111111
00000001110001011111111100111110
11111110100010111111111101101000
11111010001100100000000110100110
11111011101001110000101101110011
11111010111110000000000010011100
11111111011011000000000001101101
11111100000010001111110000011000
00000100011001111111111111001010
11111101000001001111110111001001
00000010001011010000010101111110
00000000100111011111111111111110
11111101101001000000001000011000
00000110000100100000000111100010
11111100010000110000000111101011
11111000111110100000000101010011
00000011101000111111111000111111
11111000011110110000000000000000
00000101111011110000011011000010
11111100000100110000001010010001
11111110100100110000011000011011
00000101011001000000000111000000
00000001010100011111111000000111
11111110110111101111101100101000
00000111001001010000001000111111
00000001111110101111001010101110
00000000010110111111110010111001
11111011000111011111100000000000
00000010101000010000101101111111
00000111110111110000000110011101
11111101011110100000000111001000
11111011101010100000000000100100
00000011001110000000000011010110
11111100011010000000001011001011
00000010010111000000001001011011
11111111111000010000010110101110
11111111010111110000001010111010
00000001011011110000001010001000
11111111111111110000010000001001
11111111100000100000000110101010
11111010010101001111110100000101
11111100110100111111111000001001
00000000100001000000001111000010
11111011010010010000000111101001
00000011010110001111110111101000
00000000001111101111110001100111
11111111100000100000010100011111
11111111000111011111101110111000
11111101101100110000001101010011
00000010010100010000001001000111
00000001100010110000001000011111
11111101010100011111111110010001
00000011011100110000001110110011
00000000010011000000000001011011
00000000100100101111110001100101
11111111110000001111111001001001
11111101001111100000000111000011
11111111011100101111111011111101
00000001010110011111110010111001
11111111101111000000000000000011
00000001000110111111101101111100
00000100000110111111111010100011
11111110100010101111111110011001
11111111110000011111111010100111
11111100001000000000000101000100
11111111110101100000001100010010
00000000010111010000000110000011
11111000100011010000001000110010
11111111000110011111111111111100
00000001100010011111111100010001
00000001000101001111111100011100
11111110100010100000000001110111
11111100111010100000000111011001
11111010111101010000010011010101
11111100110000111111111111111000
11111010101101111111110000000010
00000000011100000000000011111100
11111110111000111111111110100110
11111110010000111111111011000101
00000101100100001111111111010100
00000001001100101111110001000110
00000001000010100000000000000000
00000001001100100000001110111010
00000101100100000000000000101100
11111110010000110000000100111011
11111110111000110000000001011010
00000000011100001111111100000100
11111010101101110000001111111110
11111100110000110000000000001000
11111010111101011111101100101011
11111100111010101111111000100111
11111110100010101111111110001001
00000001000101000000000011100100
00000001100010010000000011101111
11111111000110010000000000000100
11111000100011011111110111001110
00000000010111011111111001111101
11111111110101101111110011101110
11111100001000001111111010111100
11111111110000010000000101011001
11111110100010100000000001100111
00000100000110110000000101011101
00000001000110110000010010000100
11111111101111001111111111111101
00000001010110010000001101000111
11111111011100100000000100000011
11111101001111101111111000111101
11111111110000000000000110110111
00000000100100100000001110011011
00000000010011001111111110100101
00000011011100111111110001001101
11111101010100010000000001101111
00000001100010111111110111100001
00000010010100011111110110111001
11111101101100111111110010101101
11111111000111010000010001001000
11111111100000101111101011100001
00000000001111100000001110011001
00000011010110000000001000011000
11111011010010011111111000010111
00000000100001001111110000111110
11111100110100110000000111110111
11111010010101000000001011111011
11111111100000101111111001010110
11111111111111111111101111110111
00000001011011111111110101111000
11111111010111111111110101000110
11111111111000011111101001010010
00000010010111001111110110100101
11111100011010001111110100110101
00000011001110001111111100101010
11111011101010101111111111011100
11111101011110101111111000111000
00000111110111111111111001100011
00000010101000011111010010000001
11111011000111010000100000000000
00000000010110110000001101000111
00000001111110100000110101010010
00000111001001011111110111000001
11111110110111100000010011011000
00000001010100010000000111111001
00000101011001001111111001000000
11111110100100111111100111100101
11111100000100111111110101101111
00000101111011111111100100111110
00000000000000000000000000000000
00000000000000000000000000000000
00000000000000000000000000000000
00000000000000000000000000000000
00000000000000000000000000000000
00000000000000000000000000000000
00000000000000000000000000000000
00000000000000000000000000000000
00000000000000000000000000000000
00000000000000000000000000000000
00000000000000000000000000000000
00000000000000000000000000000000
00000000000000000000000000000000
00000000000000000000000000000000
00000000000000000000000000000000
00000000000000000000000000000000
00000000000000000000000000000000
00000000000000000000000000000000
00000000000000000000000000000000
00000000000000000000000000000000
00000000000000000000000000000000
00000000000000000000000000000000
00000000000000000000000000000000
00000000000000000000000000000000
00000000000000000000000000000000
00000000000000000000000000000000
00000000000000000000000000000000
00000000000000000000000000000000
00000000000000000000000000000000
00000000000000000000000000000000
00000000000000000000000000000000
00000000000000000000000000000000
00000000000000000000000000000000
00000000000000000000000000000000
00000000000000000000000000000000
00000000000000000000000000000000
00000000000000000000000000000000
00000000000000000000000000000000
00000000000000000000000000000000
00000000000000000000000000000000
00000000000000000000000000000000
00000000000000000000000000000000
00000000000000000000000000000000
00000000000000000000000000000000
00000000000000000000000000000000
00000000000000000000000000000000
00000000000000000000000000000000
00000000000000000000000000000000
00000000000000000000000000000000
00000000000000000000000000000000
00000000000000000000000000000000
00000000000000000000000000000000
00000000000000000000000000000000
00000000000000000000000000000000
00000000000000000000000000000000
00000000000000000000000000000000
00000000000000000000000000000000
00000000000000000000000000000000
00000000000000000000000000000000
00000000000000000000000000000000
00000000000000000000000000000000
00000000000000000000000000000000
00000000000000000000000000000000
00000000000000000000000000000000
00000000000000000000000000000000
00000000000000000000000000000000
00000000000000000000000000000000
00000000000000000000000000000000
00000000000000000000000000000000
00000000000000000000000000000000
00000000000000000000000000000000
00000000000000000000000000000000
00000000000000000000000000000000
00000000000000000000000000000000
00000000000000000000000000000000
00000000000000000000000000000000
00000000000000000000000000000000
00000000000000000000000000000000
00000000000000000000000000000000
00000000000000000000000000000000
00000000000000000000000000000000
00000000000000000000000000000000
00000000000000000000000000000000
00000000000000000000000000000000
00000000000000000000000000000000
00000000000000000000000000000000
00000000000000000000000000000000
00000000000000000000000000000000
00000000000000000000000000000000
00000000000000000000000000000000
00000000000000000000000000000000
00000000000000000000000000000000
00000000000000000000000000000000
00000000000000000000000000000000
00000000000000000000000000000000
00000000000000000000000000000000
00000000000000000000000000000000
00000000000000000000000000000000
00000000000000000000000000000000
00000000000000000000000000000000
00000000000000000000000000000000
00000000000000000000000000000000
00000000000000000000000000000000
00000000000000000000000000000000
00000000000000000000000000000000
00000000000000000000000000000000
00000000000000000000000000000000
00000000000000000000000000000000
00000000000000000000000000000000
00000000000000000000000000000000
00000000000000000000000000000000
00000000000000000000000000000000
00000000000000000000000000000000
00000000000000000000000000000000
00000000000000000000000000000000
00000000000000000000000000000000
00000000000000000000000000000000
00000000000000000000000000000000
00000000000000000000000000000000
00000000000000000000000000000000
00000000000000000000000000000000
00000000000000000000000000000000
00000000000000000000000000000000
00000000000000000000000000000000
00000000000000000000000000000000
00000000000000000000000000000000
00000000000000000000000000000000
00000000000000000000000000000000
00000000000000000000000000000000
00000000000000000000000000000000
00000000000000000000000000000000
00000000000000000000000000000000
00000000000000000000000000000000
00000000000000000000000000000000
00000000000000000000000000000000
00000000000000000000000000000000
00000000000000000000000000000000
00000000000000000000000000000000
00000000000000000000000000000000
00000000000000000000000000000000
00000000000000000000000000000000
00000000000000000000000000000000
00000000000000000000000000000000
00000000000000000000000000000000
00000000000000000000000000000000
00000000000000000000000000000000
00000000000000000000000000000000
00000000000000000000000000000000
00000000000000000000000000000000
00000000000000000000000000000000
00000000000000000000000000000000
00000000000000000000000000000000
00000000000000000000000000000000
00000000000000000000000000000000
00000000000000000000000000000000
00000000000000000000000000000000
00000000000000000000000000000000
00000000000000000000000000000000
00000000000000000000000000000000
00000000000000000000000000000000
00000000000000000000000000000000
00000000000000000000000000000000
00000000000000000000000000000000
00000000000000000000000000000000
00000000000000000000000000000000
00000000000000000000000000000000
00000000000000000000000000000000
00000000000000000000000000000000
00000000000000000000000000000000
00000000000000000000000000000000
00000000000000000000000000000000
00000000000000000000000000000000
00000000000000000000000000000000
00000000000000000000000000000000
00000000000000000000000000000000
00000000000000000000000000000000
00000000000000000000000000000000
00000000000000000000000000000000
00000000000000000000000000000000
00000000000000000000000000000000
00000000000000000000000000000000
00000000000000000000000000000000
00000000000000000000000000000000
00000000000000000000000000000000
00000000000000000000000000000000
00000000000000000000000000000000
00000000000000000000000000000000
00000000000000000000000000000000
00000000000000000000000000000000
00000000000000000000000000000000
00000000000000000000000000000000
00000000000000000000000000000000
00000000000000000000000000000000
00000000000000000000000000000000
00000000000000000000000000000000
00000000000000000000000000000000
00000000000000000000000000000000
00000000000000000000000000000000
00000000000000000000000000000000
00000000000000000000000000000000
00000000000000000000000000000000
00000000000000000000000000000000
00000000000000000000000000000000
00000000000000000000000000000000
00000000000000000000000000000000
00000000000000000000000000000000
00000000000000000000000000000000
00000000000000000000000000000000
00000000000000000000000000000000
00000000000000000000000000000000
00000000000000000000000000000000
00000000000000000000000000000000
00000000000000000000000000000000
00000000000000000000000000000000
00000000000000000000000000000000
00000000000000000000000000000000
00000000000000000000000000000000
00000000000000000000000000000000
00000000000000000000000000000000
00000000000000000000000000000000
00000000000000000000000000000000
00000000000000000000000000000000
00000000000000000000000000000000
00000000000000000000000000000000
00000000000000000000000000000000
00000000000000000000000000000000
00000000000000000000000000000000
00000000000000000000000000000000
00000000000000000000000000000000
00000000000000000000000000000000
00000000000000000000000000000000
00000000000000000000000000000000
00000000000000000000000000000000
00000000000000000000000000000000
00000000000000000000000000000000
00000000000000000000000000000000
00000000000000000000000000000000
00000000000000000000000000000000
00000000000000000000000000000000
00000000000000000000000000000000
00000000000000000000000000000000
00000000000000000000000000000000
00000000000000000000000000000000
00000000000000000000000000000000
00000000000000000000000000000000
00000000000000000000000000000000
00000000000000000000000000000000
00000000000000000000000000000000
00000000000000000000000000000000
00000000000000000000000000000000
00000000000000000000000000000000
00000000000000000000000000000000
00000000000000000000000000000000
00000000000000000000000000000000
00000000000000000000000000000000
00000000000000000000000000000000
00000000000000000000000000000000
00000000000000000000000000000000
00000000000000000000000000000000
00000000000000000000000000000000
00000000000000000000000000000000
00000000000000000000000000000000
00000000000000000000000000000000
00000000000000000000000000000000
00000000000000000000000000000000
00000000000000000000000000000000
00000000000000000000000000000000
00000000000000000000000000000000
00000000000000000000000000000000
00000000000000000000000000000000
00000000000000000000000000000000
00000000000000000000000000000000
00000000000000000000000000000000
00000000000000000000000000000000
00000000000000000000000000000000
00000000000000000000000000000000
00000000000000000000000000000000
00000000000000000000000000000000
00000000000000000000000000000000
00000000000000000000000000000000
00000000000000000000000000000000
00000000000000000000000000000000
00000000000000000000000000000000
00000000000000000000000000000000
00000000000000000000000000000000
00000000000000000000000000000000
00000000000000000000000000000000
00000000000000000000000000000000
00000000000000000000000000000000
00000000000000000000000000000000
00000000000000000000000000000000
00000000000000000000000000000000
00000000000000000000000000000000
00000000000000000000000000000000
00000000000000000000000000000000
00000000000000000000000000000000
00000000000000000000000000000000
00000000000000000000000000000000
00000000000000000000000000000000
00000000000000000000000000000000
00000000000000000000000000000000
00000000000000000000000000000000
00000000000000000000000000000000
00000000000000000000000000000000
00000000000000000000000000000000
00000000000000000000000000000000
00000000000000000000000000000000
00000000000000000000000000000000
00000000000000000000000000000000
00000000000000000000000000000000
00000000000000000000000000000000
00000000000000000000000000000000
00000000000000000000000000000000
00000000000000000000000000000000
00000000000000000000000000000000
00000000000000000000000000000000
00000000000000000000000000000000
00000000000000000000000000000000
00000000000000000000000000000000
00000000000000000000000000000000
00000000000000000000000000000000
00000000000000000000000000000000
00000000000000000000000000000000
00000000000000000000000000000000
00000000000000000000000000000000
00000000000000000000000000000000
00000000000000000000000000000000
00000000000000000000000000000000
00000000000000000000000000000000
00000000000000000000000000000000
00000000000000000000000000000000
00000000000000000000000000000000
00000000000000000000000000000000
00000000000000000000000000000000
00000000000000000000000000000000
00000000000000000000000000000000
00000000000000000000000000000000
00000000000000000000000000000000
00000000000000000000000000000000
00000000000000000000000000000000
00000000000000000000000000000000
00000000000000000000000000000000
00000000000000000000000000000000
00000000000000000000000000000000
00000000000000000000000000000000
00000000000000000000000000000000
00000000000000000000000000000000
00000000000000000000000000000000
00000000000000000000000000000000
00000000000000000000000000000000
00000000000000000000000000000000
00000000000000000000000000000000
00000000000000000000000000000000
00000000000000000000000000000000
00000000000000000000000000000000
00000000000000000000000000000000
00000000000000000000000000000000
00000000000000000000000000000000
00000000000000000000000000000000
00000000000000000000000000000000
00000000000000000000000000000000
00000000000000000000000000000000
00000000000000000000000000000000
00000000000000000000000000000000
00000000000000000000000000000000
00000000000000000000000000000000
00000000000000000000000000000000
00000000000000000000000000000000
00000000000000000000000000000000
00000000000000000000000000000000
00000000000000000000000000000000
00000000000000000000000000000000
00000000000000000000000000000000
00000000000000000000000000000000
00000000000000000000000000000000
00000000000000000000000000000000
00000000000000000000000000000000
00000000000000000000000000000000
00000000000000000000000000000000
00000000000000000000000000000000
00000000000000000000000000000000
00000000000000000000000000000000
00000000000000000000000000000000
00000000000000000000000000000000
00000000000000000000000000000000
00000000000000000000000000000000
00000000000000000000000000000000
00000000000000000000000000000000
00000000000000000000000000000000
00000000000000000000000000000000
00000000000000000000000000000000
00000000000000000000000000000000
00000000000000000000000000000000
00000000000000000000000000000000
00000000000000000000000000000000
00000000000000000000000000000000
00000000000000000000000000000000
00000000000000000000000000000000
00000000000000000000000000000000
00000000000000000000000000000000
00000000000000000000000000000000
00000000000000000000000000000000
00000000000000000000000000000000
00000000000000000000000000000000
00000000000000000000000000000000
00000000000000000000000000000000
00000000000000000000000000000000
00000000000000000000000000000000
00000000000000000000000000000000
00000000000000000000000000000000
00000000000000000000000000000000
00000000000000000000000000000000
00000000000000000000000000000000
00000000000000000000000000000000
00000000000000000000000000000000
00000000000000000000000000000000
00000000000000000000000000000000
00000000000000000000000000000000
00000000000000000000000000000000
00000000000000000000000000000000
00000000000000000000000000000000
00000000000000000000000000000000
00000000000000000000000000000000
00000000000000000000000000000000
00000000000000000000000000000000
00000000000000000000000000000000
00000000000000000000000000000000
00000000000000000000000000000000
00000000000000000000000000000000
00000000000000000000000000000000
00000000000000000000000000000000
00000000000000000000000000000000
00000000000000000000000000000000
00000000000000000000000000000000
00000000000000000000000000000000
00000000000000000000000000000000
00000000000000000000000000000000
00000000000000000000000000000000
00000000000000000000000000000000
00000000000000000000000000000000
00000000000000000000000000000000
00000000000000000000000000000000
00000000000000000000000000000000
00000000000000000000000000000000
00000000000000000000000000000000
00000000000000000000000000000000
00000000000000000000000000000000
00000000000000000000000000000000
00000000000000000000000000000000
00000000000000000000000000000000
00000000000000000000000000000000
00000000000000000000000000000000
00000000000000000000000000000000
00000000000000000000000000000000
00000000000000000000000000000000
00000000000000000000000000000000
00000000000000000000000000000000
00000000000000000000000000000000
00000000000000000000000000000000
00000000000000000000000000000000
00000000000000000000000000000000
00000000000000000000000000000000
00000000000000000000000000000000
00000000000000000000000000000000
00000000000000000000000000000000
00000000000000000000000000000000
00000000000000000000000000000000
00000000000000000000000000000000
00000000000000000000000000000000
00000000000000000000000000000000
00000000000000000000000000000000
00000000000000000000000000000000
00000000000000000000000000000000
00000000000000000000000000000000
00000000000000000000000000000000
00000000000000000000000000000000
00000000000000000000000000000000
00000000000000000000000000000000
00000000000000000000000000000000
00000000000000000000000000000000
00000000000000000000000000000000
00000000000000000000000000000000
00000000000000000000000000000000
00000000000000000000000000000000
00000000000000000000000000000000
00000000000000000000000000000000
00000000000000000000000000000000
00000000000000000000000000000000
00000000000000000000000000000000
00000000000000000000000000000000
00000000000000000000000000000000
00000000000000000000000000000000
00000000000000000000000000000000
00000000000000000000000000000000
00000000000000000000000000000000
00000000000000000000000000000000
00000000000000000000000000000000
00000000000000000000000000000000
00000000000000000000000000000000
00000000000000000000000000000000
00000000000000000000000000000000
00000000000000000000000000000000
00000000000000000000000000000000
00000000000000000000000000000000
00000000000000000000000000000000
00000000000000000000000000000000
00000000000000000000000000000000
00000000000000000000000000000000
00000000000000000000000000000000
00000000000000000000000000000000
00000000000000000000000000000000
00000000000000000000000000000000
11111100010110110000000000000000
11111110011100101111110101001101
11111011110010111111101001001110
00000011111011111111101101111010
11111101111010100000010001111101
11111001110001100000001111110111
00001000000100100000010100001011
11111010000011011111101101110001
11111001101011001111110010011011
11111100100011000000001001100111
00000001011001000000001011110101
11111110011001001111101010011111
00000001101100010000001101101000
11111110011110001111110011000011
11110010000000001111100001001111
11111110011110010000001011000011
00000001110001110000010010111010
11111111100001000000011001101001
00001000001010001111111011001000
00000000011110111111100010001110
11111111101101110000000100000111
00000011011111000000100000110010
00000010011111111111100101100001
11111101010001101111110101111001
11111111101111001111101111001011
00000010001111001111010110111001
00000100100100111111110011100001
00000100001010000000000100100010
00000100000101000000001101110110
11111001101011011111110001100111
00000100000011101111111100001000
00000010011111010000001100010001
00000010100100010000110111000101
00000000001100000000010011001010
11111100010110101111111011110001
00000110010110001111011101000001
11111111111101100000000110000100
00000010000111100000001100010010
11111001110011001111111110000001
11111110001101001111101001110110
11111101010001001111101100011001
00000011110010110000000110101101
00000001100010011111110001010010
00000001111111001111111100001001
00000000111000110000001000110001
00000100101101110000000110010010
11111110111101101111110011010011
00000001100110001111111011011111
11111101111010111111110100000101
11111111001010110000010011111101
00000010110100110000001111011101
11111011110100011111111111100101
00000100010001100000000000001101
00000000011100010000000100010111
11111111010010010000001110001100
11111111100101011111111011011010
00000000010110110000000101000011
00000010001001011111110010101010
11111110111100110000010010010010
00000010100100110000000000011101
11111111111110110000000110101001
00000000011111101111111101010111
00000011101010100000001000011010
11111100001010011111111101110111
11110111000000000000000000000000
11111100001010010000000010001001
00000011101010101111110111100110
00000000011111100000000010101001
11111111111110111111111001010111
00000010100100111111111111100011
11111110111100111111101101101110
00000010001001010000001101010110
00000000010110111111111010111101
11111111100101010000000100100110
11111111010010011111110001110100
00000000011100011111111011101001
00000100010001101111111111110011
11111011110100010000000000011011
00000010110100111111110000100011
11111111001010111111101100000011
11111101111010110000001011111011
00000001100110000000000100100001
11111110111101100000001100101101
00000100101101111111111001101110
00000000111000111111110111001111
00000001111111000000000011110111
00000001100010010000001110101110
00000011110010111111111001010011
11111101010001000000010011100111
11111110001101000000010110001010
11111001110011000000000001111111
00000010000111101111110011101110
11111111111101101111111001111100
00000110010110000000100010111111
11111100010110100000000100001111
00000000001100001111101100110110
00000010100100011111001000111011
00000010011111011111110011101111
00000100000011100000000011111000
11111001101011010000001110011001
00000100000101001111110010001010
00000100001010001111111011011110
00000100100100110000001100011111
00000010001111000000101001000111
11111111101111000000010000110101
11111101010001100000001010000111
00000010011111110000011010011111
00000011011111001111011111001110
11111111101101111111111011111001
00000000011110110000011101110010
00001000001010000000000100111000
11111111100001001111100110010111
00000001110001111111101101000110
11111110011110011111110100111101
11110010000000000000011110110001
11111110011110000000001100111101
00000001101100011111110010011000
11111110011001000000010101100001
00000001011001001111110100001011
11111100100011001111110110011001
11111001101011000000001101100101
11111010000011010000010010001111
00001000000100101111101011110101
11111001110001101111110000001001
11111101111010101111101110000011
00000011111011110000010010000110
11111011110010110000010110110010
11111110011100100000001010110011
00000001010110110000000000000000
00000001111100111111111001011010
11111100011010011111100010000100
00000000110000100000010101100011
11111100111110110000001011011011
11110110111010110000000111010110
00000110001000001111110111110010
11111100001010000000000001010011
11111110111110001111111101100111
11111101010101111111101011001001
00000001111100000000000000101001
11111101110101001111101111001111
11111000100010101111101101000000
00000011100111010000000011000000
00000001110010111111101011100101
11111100011101101111110011111111
11111001101111101111111100011110
11111110100011100000010001001010
11111100101101001111111010010101
00000000010111011111110011101101
00000000101100100000001000000100
00000101100111110000000101000001
11111100011000100000001110001000
11111101101001001111111111010000
11111110011101110000001001111011
00000101110001010000000001010011
11111010111110111111111011010111
11111111000010011111101101000100
11111111001100110000010100011000
00000110001000110000001010110001
00000001010000101111110011111001
11111111011111010000011111100001
11111111100111111111111111011111
11111101101000100000001001010001
00000001110011011111111011010111
11111011110010010000000101111001
11111111000111101111111110100101
11111111011100001111101100101111
00000001101111101111110111100111
00000000110111011111111110111000
00000010011110101111111100101001
00000001101111011111111011111001
11111110000101001111111101111100
11111111010110010000001111110011
11111111000100110000000101001110
00000000000110001111110110001110
11111110001111100000001011000111
11111111111011000000001010110111
00000011010111010000000011110010
11111110111011101111101111110010
11111110101010100000000000101000
00000000110111000000001000010010
00000000001010111111101101000010
11111111111100101111111111110010
11111110101110010000001110101100
00000011000011101111110111010011
11111111101010010000001011000001
11111111001000010000000001100110
11111110101011110000000110011011
00000010010000101111111110011110
00000001100010100000001001101000
11111110101000011111111001011110
11111110110110111111110010101000
00000010110011000000010000000000
11111101001011000000000000000000
00000010110011001111110000000000
11111110110110110000001101011000
11111110101000010000000110100010
00000001100010101111110110011000
00000010010000100000000001100010
11111110101011111111111001100101
11111111001000011111111110011010
11111111101010011111110100111111
00000011000011100000001000101101
11111110101110011111110001010100
11111111111100100000000000001110
00000000001010110000010010111110
00000000110111001111110111101110
11111110101010101111111111011000
11111110111011100000010000001110
00000011010111011111111100001110
11111111111011001111110101001001
11111110001111101111110100111001
00000000000110000000001001110010
11111111000100111111111010110010
11111111010110011111110000001101
11111110000101000000000010000100
00000001101111010000000100000111
00000010011110100000000011010111
00000000110111010000000001001000
00000001101111100000001000011001
11111111011100000000010011010001
11111111000111100000000001011011
11111011110010011111111010000111
00000001110011010000000100101001
11111101101000101111110110101111
11111111100111110000000000100001
11111111011111011111100000011111
00000001010000100000001100000111
00000110001000111111110101001111
11111111001100111111101011101000
11111111000010010000010010111100
11111010111110110000000100101001
00000101110001011111111110101101
11111110011101111111110110000101
11111101101001000000000000110000
11111100011000101111110001111000
00000101100111111111111010111111
00000000101100101111110111111100
00000000010111010000001100010011
11111100101101000000000101101011
11111110100011101111101110110110
11111001101111100000000011100010
11111100011101100000001100000001
00000001110010110000010100011011
00000011100111011111111101000000
11111000100010100000010011000000
11111101110101000000010000110001
00000001111100001111111111010111
11111101010101110000010100110111
11111110111110000000000010011001
11111100001010001111111110101101
00000110001000000000001000001110
11110110111010111111111000101010
11111100111110111111110100100101
00000000110000101111101010011101
11111100011010010000011101111100
00000001111100110000000110100110
00000110101011000000000000000000
11110111001101010000000000000001
00000000100101010000010101011000
00000010001010110000000000100110
00000101010111011111111101011011
00000011011100011111011000111111
00000000011011101111110110111100
11111110111001010000010001010111
00000010100111010000000100001101
00000001111110000000000111011001
00000101001010011111110011110001
00000101101110001111110001010001
11111100101111011111110011111101
11111110101000001111111101101101
00000101110110001111100110110111
11111101000010010000010111011100
11111101000001001111111001111110
00000001111000111111111001111100
00000000001110010000001110000000
11111110010110101111101010110101
00000010000001001111110011110110
11111100010100010000000010011010
11111101001000001111111110011111
00000100100010111111101101110001
11111001111001000000001101101110
00000101010011111111110101010100
00000100010111010000000100001010
11111100000011000000000001110110
00000011010000001111111000100011
11111010010111000000000010011010
11111011101010111111110111011100
11111110000011001111101111111101
11111111010000111111011111000110
11111110010100010000001011000100
00000001111110101111111100001101
00000000100000001111101110111010
00000001010011101111110110111101
00000000101100001111110001000110
11111100100001000000000101110110
00000001011100001111111001011101
00000010101001010000010000011101
00000011000110011111110111100001
11111011001000010000001000011110
11111111111101000000000010010000
11111111100001010000000101110010
00000010000000001111111100111100
00000010100011010000000110111110
11111101001010101111110111000010
00000000010111001111111101111100
00000000101100111111110010001011
00000101100110011111111001011010
11111011100010000000001110100100
00000000100011110000000110100001
00000000010010101111110101101110
00000000010011010000000001011000
11111110101111101111111010100100
11111110111000010000001000101101
00000011001101010000001111010101
00000000100101101111111001111001
00000011100101101111111011011001
00000001010001100000000010100111
11111111111001111111111000101001
00000001111110110000000100011110
00000000111010110000000111001010
00000000111110100000000000000000
00000000111010111111111000110110
00000001111110111111111011100010
11111111111001110000000111010111
00000001010001101111111101011001
00000011100101100000000100100111
00000000100101100000000110000111
00000011001101011111110000101011
11111110111000011111110111010011
11111110101111100000000101011100
00000000010011011111111110101000
00000000010010100000001010010010
00000000100011111111111001011111
11111011100010001111110001011100
00000101100110010000000110100110
00000000101100110000001101110101
00000000010111000000000010000100
11111101001010100000001000111110
00000010100011011111111001000010
00000010000000000000000011000100
11111111100001011111111010001110
11111111111101001111111101110000
11111011001000011111110111100010
00000011000110010000001000011111
00000010101001011111101111100011
00000001011100000000000110100011
11111100100001001111111010001010
00000000101100000000001110111010
00000001010011100000001001000011
00000000100000000000010001000110
00000001111110100000000011110011
11111110010100011111110100111100
11111111010000110000100000111010
11111110000011000000010000000011
11111011101010110000001000100100
11111010010111001111111101100110
00000011010000000000000111011101
11111100000011001111111110001010
00000100010111011111111011110110
00000101010011110000001010101100
11111001111001001111110010010010
00000100100010110000010010001111
11111101001000000000000001100001
11111100010100011111111101100110
00000010000001000000001100001010
11111110010110100000010101001011
00000000001110011111110010000000
00000001111000110000000110000100
11111101000001000000000110000010
11111101000010011111101000100100
00000101110110000000011001001001
11111110101000000000000010010011
11111100101111010000001100000011
00000101101110000000001110101111
00000101001010010000001100001111
00000001111110001111111000100111
00000010100111011111111011110011
11111110111001011111101110101001
00000000011011100000001001000100
00000011011100010000100111000001
00000101010111010000000010100101
00000010001010111111111111011010
00000000100101011111101010101000
11110111001101011111111111111111
11110001000110110000000000000000
00000000110111111111111011010010
00000101101101100000010001011100
00000001100010011111101101001111
00000000101010011111110001110101
11111110010111111111111100110110
00000000001101000000011101100010
11111100111010101111100011110000
11111111000110100000000010101011
00000010100000001111011000110100
11111111011111101111101111000001
11111111101011011111101111101101
11111101001011110000010001011001
00000010110001101111100010110011
11111101010011101111111111110001
11111110010110000000101111101100
11111110111001100000000000110100
11111100010110010000000110110101
00000000001110000000001010011001
11111010000010001111111111001001
11111011111101100000010101100101
11111110101111011111111110110011
11111110110100111111101111111000
11111110011100101111110011001100
11111110101101000000010001110000
11111011111100011111101011001000
11111110110011110000010010110110
11111011101001100000001101100110
11111001011010110000100110010001
11111111010010100000011101011011
11111101001010010000100010011101
11111111110010110000001111101111
00000010011010100000101100110110
11111110010010110000001011100101
11111111111101100000010001010111
00000100010010110000011001110110
11111111010111110000001011100101
00000010010010100000000001111111
11111110000110010000000001011001
00000111010001011111111010000101
11111101110010100000001001000010
00000011001011011111110010110010
00000011011010001111111001000011
00000001111111110000000010011111
11111100111111001111110111110000
00000000010101010000011001101111
00000000110011110000000111010000
11111101111011011111101010101011
11111100011011011111111011110010
11111101010010001111101100110000
00000010110010001111111010001011
11111100001110110000001100011010
11111111110010111111111010101001
11111111111010000000000100101111
00000001100011110000000110010000
00000000101101000000001100010010
11111100111111010000000100000111
11111110001011001111101000110101
00000010000000101111110111111011
11111111101110001111110100011110
11111100011111101111110110110000
11111100011100001111111010000010
00000001011100110000000001010100
00000000001001110000000100010111
00000001100010100000000000000000
00000000001001111111111011101001
00000001011100111111111110101100
11111100011100000000000101111110
11111100011111100000001001010000
11111111101110000000001011100010
00000010000000100000001000000101
11111110001011000000010111001011
11111100111111011111111011111001
00000000101101001111110011101110
00000001100011111111111001110000
11111111111010001111111011010001
11111111110010110000000101010111
11111100001110111111110011100110
00000010110010000000000101110101
11111101010010000000010011010000
11111100011011010000000100001110
11111101111011010000010101010101
00000000110011111111111000110000
00000000010101011111100110010001
11111100111111000000001000010000
00000001111111111111111101100001
00000011011010000000000110111101
00000011001011010000001101001110
11111101110010101111110110111110
00000111010001010000000101111011
11111110000110011111111110100111
00000010010010101111111110000001
11111111010111111111110100011011
00000100010010111111100110001010
11111111111101101111101110101001
11111110010010111111110100011011
00000010011010101111010011001010
11111111110010111111110000010001
11111101001010011111011101100011
11111111010010101111100010100101
11111001011010111111011001101111
11111011101001101111110010011010
11111110110011111111101101001010
11111011111100010000010100111000
11111110101101001111101110010000
11111110011100100000001100110100
11111110110100110000010000001000
11111110101111010000000001001101
11111011111101101111101010011011
11111010000010000000000000110111
00000000001110001111110101100111
11111100010110011111111001001011
11111110111001101111111111001100
11111110010110001111010000010100
11111101010011100000000000001111
00000010110001100000011101001101
11111101001011111111101110100111
11111111101011010000010000010011
11111111011111100000010000111111
00000010100000000000100111001100
11111111000110101111111101010101
11111100111010100000011100010000
00000000001101001111100010011110
11111110010111110000000011001010
00000000101010010000001110001011
00000001100010010000010010110001
00000101101101101111101110100100
00000000110111110000000100101110
00000000000000000000000000000000
00000000000000000000000000000000
00000000000000000000000000000000
00000000000000000000000000000000
00000000000000000000000000000000
00000000000000000000000000000000
00000000000000000000000000000000
00000000000000000000000000000000
00000000000000000000000000000000
00000000000000000000000000000000
00000000000000000000000000000000
00000000000000000000000000000000
00000000000000000000000000000000
00000000000000000000000000000000
00000000000000000000000000000000
00000000000000000000000000000000
00000000000000000000000000000000
00000000000000000000000000000000
00000000000000000000000000000000
00000000000000000000000000000000
00000000000000000000000000000000
00000000000000000000000000000000
00000000000000000000000000000000
00000000000000000000000000000000
00000000000000000000000000000000
00000000000000000000000000000000
00000000000000000000000000000000
00000000000000000000000000000000
00000000000000000000000000000000
00000000000000000000000000000000
00000000000000000000000000000000
00000000000000000000000000000000
00000000000000000000000000000000
00000000000000000000000000000000
00000000000000000000000000000000
00000000000000000000000000000000
00000000000000000000000000000000
00000000000000000000000000000000
00000000000000000000000000000000
00000000000000000000000000000000
00000000000000000000000000000000
00000000000000000000000000000000
00000000000000000000000000000000
00000000000000000000000000000000
00000000000000000000000000000000
00000000000000000000000000000000
00000000000000000000000000000000
00000000000000000000000000000000
00000000000000000000000000000000
00000000000000000000000000000000
00000000000000000000000000000000
00000000000000000000000000000000
00000000000000000000000000000000
00000000000000000000000000000000
00000000000000000000000000000000
00000000000000000000000000000000
00000000000000000000000000000000
00000000000000000000000000000000
00000000000000000000000000000000
00000000000000000000000000000000
00000000000000000000000000000000
00000000000000000000000000000000
00000000000000000000000000000000
00000000000000000000000000000000
00000000000000000000000000000000
00000000000000000000000000000000
00000000000000000000000000000000
00000000000000000000000000000000
00000000000000000000000000000000
00000000000000000000000000000000
00000000000000000000000000000000
00000000000000000000000000000000
00000000000000000000000000000000
00000000000000000000000000000000
00000000000000000000000000000000
00000000000000000000000000000000
00000000000000000000000000000000
00000000000000000000000000000000
00000000000000000000000000000000
00000000000000000000000000000000
00000000000000000000000000000000
00000000000000000000000000000000
00000000000000000000000000000000
00000000000000000000000000000000
00000000000000000000000000000000
00000000000000000000000000000000
00000000000000000000000000000000
00000000000000000000000000000000
00000000000000000000000000000000
00000000000000000000000000000000
00000000000000000000000000000000
00000000000000000000000000000000
00000000000000000000000000000000
00000000000000000000000000000000
00000000000000000000000000000000
00000000000000000000000000000000
00000000000000000000000000000000
00000000000000000000000000000000
00000000000000000000000000000000
00000000000000000000000000000000
00000000000000000000000000000000
00000000000000000000000000000000
00000000000000000000000000000000
00000000000000000000000000000000
00000000000000000000000000000000
00000000000000000000000000000000
00000000000000000000000000000000
00000000000000000000000000000000
00000000000000000000000000000000
00000000000000000000000000000000
00000000000000000000000000000000
00000000000000000000000000000000
00000000000000000000000000000000
00000000000000000000000000000000
00000000000000000000000000000000
00000000000000000000000000000000
00000000000000000000000000000000
00000000000000000000000000000000
00000000000000000000000000000000
00000000000000000000000000000000
00000000000000000000000000000000
00000000000000000000000000000000
00000000000000000000000000000000
00000000000000000000000000000000
00000000000000000000000000000000
00000000000000000000000000000000
00000000000000000000000000000000
00000000000000000000000000000000
00000000000000000000000000000000
00000000000000000000000000000000
00000000000000000000000000000000
00000000000000000000000000000000
00000000000000000000000000000000
00000000000000000000000000000000
00000000000000000000000000000000
00000000000000000000000000000000
00000000000000000000000000000000
00000000000000000000000000000000
00000000000000000000000000000000
00000000000000000000000000000000
00000000000000000000000000000000
00000000000000000000000000000000
00000000000000000000000000000000
00000000000000000000000000000000
00000000000000000000000000000000
00000000000000000000000000000000
00000000000000000000000000000000
00000000000000000000000000000000
00000000000000000000000000000000
00000000000000000000000000000000
00000000000000000000000000000000
00000000000000000000000000000000
00000000000000000000000000000000
00000000000000000000000000000000
00000000000000000000000000000000
00000000000000000000000000000000
00000000000000000000000000000000
00000000000000000000000000000000
00000000000000000000000000000000
00000000000000000000000000000000
00000000000000000000000000000000
00000000000000000000000000000000
00000000000000000000000000000000
00000000000000000000000000000000
00000000000000000000000000000000
00000000000000000000000000000000
00000000000000000000000000000000
00000000000000000000000000000000
00000000000000000000000000000000
00000000000000000000000000000000
00000000000000000000000000000000
00000000000000000000000000000000
00000000000000000000000000000000
00000000000000000000000000000000
00000000000000000000000000000000
00000000000000000000000000000000
00000000000000000000000000000000
00000000000000000000000000000000
00000000000000000000000000000000
00000000000000000000000000000000
00000000000000000000000000000000
00000000000000000000000000000000
00000000000000000000000000000000
00000000000000000000000000000000
00000000000000000000000000000000
00000000000000000000000000000000
00000000000000000000000000000000
00000000000000000000000000000000
00000000000000000000000000000000
00000000000000000000000000000000
00000000000000000000000000000000
00000000000000000000000000000000
00000000000000000000000000000000
00000000000000000000000000000000
00000000000000000000000000000000
00000000000000000000000000000000
00000000000000000000000000000000
00000000000000000000000000000000
00000000000000000000000000000000
00000000000000000000000000000000
00000000000000000000000000000000
00000000000000000000000000000000
00000000000000000000000000000000
00000000000000000000000000000000
00000000000000000000000000000000
00000000000000000000000000000000
00000000000000000000000000000000
00000000000000000000000000000000
00000000000000000000000000000000
00000000000000000000000000000000
00000000000000000000000000000000
00000000000000000000000000000000
00000000000000000000000000000000
00000000000000000000000000000000
00000000000000000000000000000000
00000000000000000000000000000000
00000000000000000000000000000000
00000000000000000000000000000000
00000000000000000000000000000000
00000000000000000000000000000000
00000000000000000000000000000000
00000000000000000000000000000000
00000000000000000000000000000000
00000000000000000000000000000000
00000000000000000000000000000000
00000000000000000000000000000000
00000000000000000000000000000000
00000000000000000000000000000000
00000000000000000000000000000000
00000000000000000000000000000000
00000000000000000000000000000000
00000000000000000000000000000000
00000000000000000000000000000000
00000000000000000000000000000000
00000000000000000000000000000000
00000000000000000000000000000000
00000000000000000000000000000000
00000000000000000000000000000000
00000000000000000000000000000000
00000000000000000000000000000000
00000000000000000000000000000000
00000000000000000000000000000000
00000000000000000000000000000000
00000000000000000000000000000000
00000000000000000000000000000000
00000000000000000000000000000000
00000000000000000000000000000000
00000000000000000000000000000000
00000000000000000000000000000000
00000000000000000000000000000000
00000000000000000000000000000000
00000000000000000000000000000000
00000000000000000000000000000000
00000000000000000000000000000000
00000000000000000000000000000000
00000000000000000000000000000000
00000000000000000000000000000000
00000000000000000000000000000000
00000000000000000000000000000000
00000000000000000000000000000000
00000000000000000000000000000000
00000000000000000000000000000000
00000000000000000000000000000000
00000000000000000000000000000000
00000000000000000000000000000000
00000000000000000000000000000000
00000000000000000000000000000000
00000000000000000000000000000000
00000000000000000000000000000000
00000000000000000000000000000000
00000000000000000000000000000000
00000000000000000000000000000000
00000000000000000000000000000000
00000000000000000000000000000000
00000000000000000000000000000000
00000000000000000000000000000000
00000000000000000000000000000000
00000000000000000000000000000000
00000000000000000000000000000000
00000000000000000000000000000000
00000000000000000000000000000000
00000000000000000000000000000000
00000000000000000000000000000000
00000000000000000000000000000000
00000000000000000000000000000000
00000000000000000000000000000000
00000000000000000000000000000000
00000000000000000000000000000000
00000000000000000000000000000000
00000000000000000000000000000000
00000000000000000000000000000000
00000000000000000000000000000000
00000000000000000000000000000000
00000000000000000000000000000000
00000000000000000000000000000000
00000000000000000000000000000000
00000000000000000000000000000000
00000000000000000000000000000000
00000000000000000000000000000000
00000000000000000000000000000000
00000000000000000000000000000000
00000000000000000000000000000000
00000000000000000000000000000000
00000000000000000000000000000000
00000000000000000000000000000000
00000000000000000000000000000000
00000000000000000000000000000000
00000000000000000000000000000000
00000000000000000000000000000000
00000000000000000000000000000000
00000000000000000000000000000000
00000000000000000000000000000000
00000000000000000000000000000000
00000000000000000000000000000000
00000000000000000000000000000000
00000000000000000000000000000000
00000000000000000000000000000000
00000000000000000000000000000000
00000000000000000000000000000000
00000000000000000000000000000000
00000000000000000000000000000000
00000000000000000000000000000000
00000000000000000000000000000000
00000000000000000000000000000000
00000000000000000000000000000000
00000000000000000000000000000000
00000000000000000000000000000000
00000000000000000000000000000000
00000000000000000000000000000000
00000000000000000000000000000000
00000000000000000000000000000000
00000000000000000000000000000000
00000000000000000000000000000000
00000000000000000000000000000000
00000000000000000000000000000000
00000000000000000000000000000000
00000000000000000000000000000000
00000000000000000000000000000000
00000000000000000000000000000000
00000000000000000000000000000000
00000000000000000000000000000000
00000000000000000000000000000000
00000000000000000000000000000000
00000000000000000000000000000000
00000000000000000000000000000000
00000000000000000000000000000000
00000000000000000000000000000000
00000000000000000000000000000000
00000000000000000000000000000000
00000000000000000000000000000000
00000000000000000000000000000000
00000000000000000000000000000000
00000000000000000000000000000000
00000000000000000000000000000000
00000000000000000000000000000000
00000000000000000000000000000000
00000000000000000000000000000000
00000000000000000000000000000000
00000000000000000000000000000000
00000000000000000000000000000000
00000000000000000000000000000000
00000000000000000000000000000000
00000000000000000000000000000000
00000000000000000000000000000000
00000000000000000000000000000000
00000000000000000000000000000000
00000000000000000000000000000000
00000000000000000000000000000000
00000000000000000000000000000000
00000000000000000000000000000000
00000000000000000000000000000000
00000000000000000000000000000000
00000000000000000000000000000000
00000000000000000000000000000000
00000000000000000000000000000000
00000000000000000000000000000000
00000000000000000000000000000000
00000000000000000000000000000000
00000000000000000000000000000000
00000000000000000000000000000000
00000000000000000000000000000000
