1fdc8e
1fffd1
00ab2
034e7
1fa847
022c4
01d94
00a6b
00d41
1fdab4
02450
01e8a
009da
1fd5cf
1fd219
01c98
00776
1fdd49
017d4
0077f
00064
01b56
00a58
1ff9f6
1ffae2
06804
1faee3
03ead
1ff566
1f96b4
02b7c
0031d
1ff6c6
1fce98
005c8
1fe7bb
1ff35a
1ffde6
1ff7d2
1ffe17
1fdf4d
1feea8
1fe6ea
0233c
00651
00fd8
1fe40c
006ca
1ffdb7
00772
003b9
1fe912
1ff0ba
00d17
1fe531
1ff909
1fd91c
1fe9b0
006e0
1fedee
021bb
1ffaec
1fe663
00750
0410b
1fe78f
1ffcfc
1fe1ea
02203
00413
00ea4
0032a
02f4e
010f7
002af
020a7
1fe7da
06662
1fe842
06733
046e8
0326e
1fffea
1fd80c
1fdd5f
00103
007d9
01d1b
1ff58e
01f3d
1ff87e
1ffb55
031b4
1fb032
04dd4
1fbb23
01913
00d94
1fd497
1fcebd
01295
1feaf8
1fd6ff
014f1
03392
1fe9bb
00a20
0304f
1ff3f9
1ff35e
1ff649
1fe193
1fdef5
1fcecb
00973
1fec9e
1febe6
007f6
1fec18
1feece
0073b
01265
021c5
0227b
00eff
1ffab5
1fddf4
1ff2d3
