111111101110010001110
111111111111111010001
000000000101010110010
000000011010011100111
111111010100001000111
000000010001011000100
000000001110110010100
000000000101001101011
000000000110101000001
111111101101010110100
000000010010001010000
000000001111010001010
000000000100111011010
111111101010111001111
111111101001000011001
000000001110010011000
000000000011101110110
111111101110101001001
000000001011111010100
000000000011101111111
000000000000001100100
000000001101101010110
000000000101001011000
111111111100111110110
111111111101011100010
000000110100000000100
111111010111011100011
000000011111010101101
111111111010101100110
111111001011010110100
000000010101101111100
000000000001100011101
111111111011011000110
111111100111010011000
000000000010111001000
111111110011110111011
111111111001101011010
111111111110111100110
111111111011111010010
111111111111000010111
111111101111101001101
111111110111010101000
111111110011011101010
000000010001100111100
000000000011001010001
000000000111111011000
111111110010000001100
000000000011011001010
111111111110110110111
000000000011101110010
000000000001110111001
111111110100100010010
111111111000010111010
000000000110100010111
111111110010100110001
111111111100100001001
111111101100100011100
111111110100110110000
000000000011011100000
111111110110111101110
000000010000110111011
111111111101011101100
111111110011001100011
000000000011101010000
000000100000100001011
111111110011110001111
111111111110011111100
111111110000111101010
000000010001000000011
000000000010000010011
000000000111010100100
000000000001100101010
000000010111101001110
000000001000011110111
000000000001010101111
000000010000010100111
111111110011111011010
000000110011001100010
111111110100001000010
000000110011100110011
000000100011011101000
000000011001001101110
111111111111111101010
111111101100000001100
111111101110101011111
000000000000100000011
000000000011111011001
000000001110100011011
111111111010110001110
000000001111100111101
111111111100001111110
111111111101101010101
000000011000110110100
111111011000000110010
000000100110111010100
111111011101100100011
000000001100100010011
000000000110110010100
111111101010010010111
111111100111010111101
000000001001010010101
111111110101011111000
111111101011011111111
000000001010011110001
000000011001110010010
111111110100110111011
000000000101000100000
000000011000001001111
111111111001111111001
111111111001101011110
111111111011001001001
111111110000110010011
111111101111011110101
111111100111011001011
000000000100101110011
111111110110010011110
111111110101111100110
000000000011111110110
111111110110000011000
111111110111011001110
000000000011100111011
000000001001001100101
000000010000111000101
000000010001001111011
000000000111011111111
111111111101010110101
111111101110111110100
111111111001011010011
